node {
  name: "global_step/Initializer/zeros"
  op: "Const"
  attr {
    key: "_class"
    value {
      list {
        s: "loc:@global_step"
      }
    }
  }
  attr {
    key: "_output_shapes"
    value {
      list {
        shape {
        }
      }
    }
  }
  attr {
    key: "dtype"
    value {
      type: DT_INT64
    }
  }
  attr {
    key: "value"
    value {
      tensor {
        dtype: DT_INT64
        tensor_shape {
        }
        int64_val: 0
      }
    }
  }
}
node {
  name: "global_step"
  op: "VarHandleOp"
  attr {
    key: "_class"
    value {
      list {
        s: "loc:@global_step"
      }
    }
  }
  attr {
    key: "_output_shapes"
    value {
      list {
        shape {
        }
      }
    }
  }
  attr {
    key: "container"
    value {
      s: ""
    }
  }
  attr {
    key: "dtype"
    value {
      type: DT_INT64
    }
  }
  attr {
    key: "shape"
    value {
      shape {
      }
    }
  }
  attr {
    key: "shared_name"
    value {
      s: "global_step"
    }
  }
}
node {
  name: "global_step/IsInitialized/VarIsInitializedOp"
  op: "VarIsInitializedOp"
  input: "global_step"
  attr {
    key: "_output_shapes"
    value {
      list {
        shape {
        }
      }
    }
  }
}
node {
  name: "global_step/Assign"
  op: "AssignVariableOp"
  input: "global_step"
  input: "global_step/Initializer/zeros"
  attr {
    key: "dtype"
    value {
      type: DT_INT64
    }
  }
}
node {
  name: "global_step/Read/ReadVariableOp"
  op: "ReadVariableOp"
  input: "global_step"
  attr {
    key: "_output_shapes"
    value {
      list {
        shape {
        }
      }
    }
  }
  attr {
    key: "dtype"
    value {
      type: DT_INT64
    }
  }
}
node {
  name: "global_step/VarIsInitializedOp"
  op: "VarIsInitializedOp"
  input: "global_step"
  attr {
    key: "_output_shapes"
    value {
      list {
        shape {
        }
      }
    }
  }
}
node {
  name: "global_step/cond"
  op: "If"
  input: "global_step/VarIsInitializedOp"
  input: "global_step"
  input: "global_step/Initializer/zeros"
  attr {
    key: "Tcond"
    value {
      type: DT_BOOL
    }
  }
  attr {
    key: "Tin"
    value {
      list {
        type: DT_RESOURCE
        type: DT_INT64
      }
    }
  }
  attr {
    key: "Tout"
    value {
      list {
        type: DT_INT64
      }
    }
  }
  attr {
    key: "_lower_using_switch_merge"
    value {
      b: true
    }
  }
  attr {
    key: "_output_shapes"
    value {
      list {
        shape {
        }
      }
    }
  }
  attr {
    key: "else_branch"
    value {
      func {
        name: "global_step_cond_false_74"
      }
    }
  }
  attr {
    key: "output_shapes"
    value {
      list {
        shape {
        }
      }
    }
  }
  attr {
    key: "then_branch"
    value {
      func {
        name: "global_step_cond_true_73"
      }
    }
  }
}
node {
  name: "global_step/cond/Identity"
  op: "Identity"
  input: "global_step/cond"
  attr {
    key: "T"
    value {
      type: DT_INT64
    }
  }
  attr {
    key: "_output_shapes"
    value {
      list {
        shape {
        }
      }
    }
  }
}
node {
  name: "global_step/add/y"
  op: "Const"
  attr {
    key: "_output_shapes"
    value {
      list {
        shape {
        }
      }
    }
  }
  attr {
    key: "dtype"
    value {
      type: DT_INT64
    }
  }
  attr {
    key: "value"
    value {
      tensor {
        dtype: DT_INT64
        tensor_shape {
        }
        int64_val: 0
      }
    }
  }
}
node {
  name: "global_step/add"
  op: "AddV2"
  input: "global_step/cond/Identity"
  input: "global_step/add/y"
  attr {
    key: "T"
    value {
      type: DT_INT64
    }
  }
  attr {
    key: "_output_shapes"
    value {
      list {
        shape {
        }
      }
    }
  }
}
node {
  name: "normalize_element/component_0"
  op: "Const"
  device: "/device:CPU:0"
  attr {
    key: "_output_shapes"
    value {
      list {
        shape {
          dim {
            size: 313
          }
        }
      }
    }
  }
  attr {
    key: "dtype"
    value {
      type: DT_DOUBLE
    }
  }
  attr {
    key: "value"
    value {
      tensor {
        dtype: DT_DOUBLE
        tensor_shape {
          dim {
            size: 313
          }
        }
        tensor_content: "\215\247\233\\\342\310\321?\022\242pG\2617\370\277\221\010z\354\310\342\356\277\3459l\372\232\362\315\277X\243\200\026\3024\352\277&\202/ST\247\323\277u%\2169\322\376\365?\317\302\264\001\355J\365\277>\327\207\336\366\322\337?\270\316/\"r\315\370\277\334r\221\316\316\247\363?\214\3172\350PP\321\277\224\277{\325n\366\255?B\300\224c\313P\361?\335\203;\023\365/\003@\224\277{\325n\366\255?g\024\000\361\014\321\277\277\270\004J\177\226\353\370?\317\302\264\001\355J\365\277\317\302\264\001\355J\365\277\335\203;\023\365/\003@x\003:\260\205\356\346?L\272Qa\251\331\300?\317\302\264\001\355J\365\277\214\343\370\273(^\362\277X\243\200\026\3024\352\277\376\231%\224^\254\332\277~oyN\215\226\304\277U\201,\215u$\373\2772\37742\3431\252\2771\252\260\026EW\270?u%\2169\322\376\365?2Z\230\307\345\037\324?\013J\002a@\t\351\277>\327\207\336\366\322\337?\037RM\024\223\224\366?e\277\221\235\354\315\330?\376\231%\224^\254\332\277\261\324r$\224D\311\277~oyN\215\226\304\277\013J\002a@\t\351\277%\252\273\372\003\303\345?\376\231%\224^\254\332\277>\327\207\336\366\322\337?\221\010z\354\310\342\356\277\225g\236\025\322#\001@\231$\213s\363{\335?\215\247\233\\\342\310\321?\321T,\373\246|\226?\226]\273+\346\234\360\277\350\357\200\345\337Z\377?\013J\002a@\t\351\277\037RM\024\223\224\366?\354\330\215j\264\330\340\277\376\231%\224^\254\332\277L\272Qa\251\331\300?\3134,\276W\376\325\277\215\247\233\\\342\310\321?2Z\230\307\345\037\324?%\252\273\372\003\303\345?\013J\002a@\t\351\277\376\231%\224^\254\332\2772Z\230\307\345\037\324?B\300\224c\313P\361?2\37742\3431\252\277\253h3\206\214\234\353?\322P=E\202\227\344?>\327\207\336\366\322\337?L\272Qa\251\331\300?2\37742\3431\252\277\205\213\212\325\267/\343\277\000J\rE\377t\266\2772Z\230\307\345\037\324?\013J\002a@\t\351\277E\0330\361\217\363\355?2\37742\3431\252\277\334r\221\316\316\247\363?\370U}\201\305\213\354\277\231\223\325\210\n\273\360?\231\223\325\210\n\273\360?\322\344\010\2139[\344\2772Z\230\307\345\037\324?2\37742\3431\252\277U\201,\215u$\373\277\270\316/\"r\315\370\277\350\357\200\345\337Z\377?\327\014\2252\351v\326?\350\357\200\345\337Z\377?\3459l\372\232\362\315\277\013J\002a@\t\351\277\334r\221\316\316\247\363?\205\213\212\325\267/\343\277\214\343\370\273(^\362\2770\377\rR\303k\003\300\376\231%\224^\254\332\277\317\302\264\001\355J\365\277\355\037R\014\377~\000\300<\224]\360\222\271\001@\317\302\264\001\355J\365\277\215\247\233\\\342\310\321?\253h3\206\214\234\353?\3459l\372\232\362\315\277\013J\002a@\t\351\277X\017\265\320\nq\352?L\272Qa\251\331\300?\215\247\233\\\342\310\321?\022\242pG\2617\370\277L\272Qa\251\331\300?>\327\207\336\366\322\337?\3459l\372\232\362\315\277\277\\\270e\007\032\350?\376\231%\224^\254\332\277\253h3\206\214\234\353?\013J\002a@\t\351\277\350\357\200\345\337Z\377?82\014 6\004\342\277E\0330\361\217\363\355?\221\010z\354\310\342\356\277\370U}\201\305\213\354\277\022\242pG\2617\370\277\013J\002a@\t\351\277x\003:\260\205\356\346?\3134,\276W\376\325\2771\252\260\026EW\270?\376\231%\224^\254\332\277\355\037R\014\377~\000\300\226]\273+\346\234\360\277\205\213\212\325\267/\343\277\334r\221\316\316\247\363?\214\3172\350PP\321\277>\327\207\336\366\322\337?\217\031\023\031M|\362?\3459l\372\232\362\315\277\224\277{\325n\366\255?9\236@\332~@\342?\010(\256\327\363\370\371\277\213\367\276\217\000l\343?>\327\207\336\366\322\337?\334r\221\316\316\247\363?\205\213\212\325\267/\343\2772\37742\3431\252\277\205\213\212\325\267/\343\2772\37742\3431\252\277\217\0170/a\365\001\300L\272Qa\251\331\300?\3134,\276W\376\325\277&\202/ST\247\323\277\262\204D\r\2675\312?2\377\036jeZ\337\277\253h3\206\214\234\353?\214\343\370\273(^\362\2772Z\230\307\345\037\324?\037RM\024\223\224\366?\231$\213s\363{\335?\013r\216\010\360$\333?\245\020\305\237\033n\374?\022\242pG\2617\370\277>\327\207\336\366\322\337?2Z\230\307\345\037\324?L\272Qa\251\331\300?\3459l\372\232\362\315\2772\37742\3431\252\2772Z\230\307\345\037\324?L\272Qa\251\331\300?\215\247\233\\\342\310\321?\231\223\325\210\n\273\360?\013r\216\010\360$\333?\013J\002a@\t\351\277\000J\rE\377t\266\277\345\354S>\214\346\361?L\272Qa\251\331\300?\037>\207@\273\206\345\277>\327\207\336\366\322\337?2\37742\3431\252\277\230L\"\377a\003\335\277r\227\005\366<\262\346\277\214\355\333\245\024\345\002@\376\231%\224^\254\332\277L\272Qa\251\331\300?\224\277{\325n\366\255?\370U}\201\305\213\354\277\022\242pG\2617\370\2772\37742\3431\252\277\3459l\372\232\362\315\277\376\231%\224^\254\332\277\037RM\024\223\224\366?\202i6Lk\037\364\277\262\204D\r\2675\312?\376\231%\224^\254\332\277\317\302\264\001\355J\365\277\3570\374P%\007\360\277\214\343\370\273(^\362\277\376\231%\224^\254\332\2772\37742\3431\252\277\230L\"\377a\003\335\277\205\213\212\325\267/\343\277%\252\273\372\003\303\345?\376\231%\224^\254\332\277x\003:\260\205\356\346?\3459l\372\232\362\315\277E\0330\361\217\363\355?\322P=E\202\227\344?\013^\3104\030\027\372?\322\356\353t%\342\004\300\327\014\2252\351v\326?\205\213\212\325\267/\343\277\221\010z\354\310\342\356\277\214\3172\350PP\321\277(\314\017\204P\323\364?g\024\000\361\014\321\277\277\230L\"\377a\003\335\277(\314\017\204P\323\364?\373\343\005\305Z\330\373?\221\010z\354\310\342\356\277\226]\273+\346\234\360\277\3459l\372\232\362\315\277\214\3172\350PP\321\277\013J\002a@\t\351\277\205\213\212\325\267/\343\277\370U}\201\305\213\354\277\317\302\264\001\355J\365\2772Z\230\307\345\037\324?\013J\002a@\t\351\277L\272Qa\251\331\300?\370U}\201\305\213\354\277L\272Qa\251\331\300?\277\\\270e\007\032\350?\245\020\305\237\033n\374?\376\231%\224^\254\332\277\013J\002a@\t\351\277L\272Qa\251\331\300?\215\247\233\\\342\310\321?\221\010z\354\310\342\356\2772Z\230\307\345\037\324?\322\344\010\2139[\344\277U\201,\215u$\373\277\000J\rE\377t\266\277\021\2666\033\211E\351?\220*\275]s\004\002@2Z\230\307\345\037\324?\214\3172\350PP\321\277\253h3\206\214\234\353?\321T,\373\246|\226?\213\367\276\217\000l\343?2\37742\3431\252\277\355\037R\014\377~\000\300>\327\207\336\366\322\337?2\37742\3431\252\277\214\3172\350PP\321\277\310~\014\357S*\367?\362D\302$\375\024\341?U\201,\215u$\373\277\334r\221\316\316\247\363?\3459l\372\232\362\315\277\224\277{\325n\366\255?%\252\273\372\003\303\345?\321T,\373\246|\226?\376\231%\224^\254\332\277\334r\221\316\316\247\363?\277\\\270e\007\032\350?ku\261l\360\241\367\277\302R\325{\033\223\007@\205\213\212\325\267/\343\2779\236@\332~@\342?\334r\221\316\316\247\363?2\37742\3431\252\277B\300\224c\313P\361?\342\300\034\313SO\002@\013J\002a@\t\351\277u%\2169\322\376\365?2\37742\3431\252\277\205\213\212\325\267/\343\277\217\0170/a\365\001\300\253h3\206\214\234\353?(\314\017\204P\323\364?\227t\256\246\021\037\357?\376\231%\224^\254\332\277Z\310\360.\300\312\n@\3459l\372\232\362\315\2772Z\230\307\345\037\324?\354\330\215j\264\330\340\277\013^\3104\030\027\372?\327\014\2252\351v\326?s\336\311\227\207X\006\300\037>\207@\273\206\345\2772\37742\3431\252\277\310~\014\357S*\367?2\37742\3431\252\277B\300\224c\313P\361?\370U}\201\305\213\354\277\334r\221\316\316\247\363?\231\223\325\210\n\273\360?\022\242pG\2617\370\277\214\343\370\273(^\362\277\021\2666\033\211E\351?\214\343\370\273(^\362\277\221\010z\354\310\342\356\277\213\367\276\217\000l\343?2\37742\3431\252\277\214\343\370\273(^\362\277\334r\221\316\316\247\363?L\272Qa\251\331\300?e\277\221\235\354\315\330?\205\213\212\325\267/\343\277x\003:\260\205\356\346?L\272Qa\251\331\300?\221\010z\354\310\342\356\277\205\213\212\325\267/\343\277\355\037R\014\377~\000\300\376\231%\224^\254\332\277\205\213\212\325\267/\343\277\230L\"\377a\003\335\277\345\354S>\214\346\361?"
      }
    }
  }
}
node {
  name: "normalize_element/component_1"
  op: "Const"
  device: "/device:CPU:0"
  attr {
    key: "_output_shapes"
    value {
      list {
        shape {
          dim {
            size: 313
          }
        }
      }
    }
  }
  attr {
    key: "dtype"
    value {
      type: DT_DOUBLE
    }
  }
  attr {
    key: "value"
    value {
      tensor {
        dtype: DT_DOUBLE
        tensor_shape {
          dim {
            size: 313
          }
        }
        tensor_content: "E\324Z\310\344\031\354\277\325\202o\021\265`\367?e1\204Z\205\247\322?E\324Z\310\344\031\354\277\325\202o\021\265`\367?E\324Z\310\344\031\354\277E\324Z\310\344\031\354\277\325\202o\021\265`\367?E\324Z\310\344\031\354\277e1\204Z\205\247\322?e1\204Z\205\247\322?E\324Z\310\344\031\354\277e1\204Z\205\247\322?E\324Z\310\344\031\354\277E\324Z\310\344\031\354\277E\324Z\310\344\031\354\277E\324Z\310\344\031\354\277\222\273\030\033\"\306\322\277\325\202o\021\265`\367?\325\202o\021\265`\367?\325\202o\021\265`\367?E\324Z\310\344\031\354\277E\324Z\310\344\031\354\277\325\202o\021\265`\367?\325\202o\021\265`\367?e1\204Z\205\247\322?E\324Z\310\344\031\354\277E\324Z\310\344\031\354\277\325\202o\021\265`\367?E\324Z\310\344\031\354\277E\324Z\310\344\031\354\277E\324Z\310\344\031\354\277E\324Z\310\344\031\354\277\325\202o\021\265`\367?E\324Z\310\344\031\354\277E\324Z\310\344\031\354\277e1\204Z\205\247\322?E\324Z\310\344\031\354\277E\324Z\310\344\031\354\277E\324Z\310\344\031\354\277\325\202o\021\265`\367?E\324Z\310\344\031\354\277e1\204Z\205\247\322?E\324Z\310\344\031\354\277E\324Z\310\344\031\354\277E\324Z\310\344\031\354\277E\324Z\310\344\031\354\277E\324Z\310\344\031\354\277E\324Z\310\344\031\354\277\325\202o\021\265`\367?E\324Z\310\344\031\354\277E\324Z\310\344\031\354\277E\324Z\310\344\031\354\277E\324Z\310\344\031\354\277e1\204Z\205\247\322?e1\204Z\205\247\322?E\324Z\310\344\031\354\277E\324Z\310\344\031\354\277e1\204Z\205\247\322?E\324Z\310\344\031\354\277\325\202o\021\265`\367?E\324Z\310\344\031\354\277E\324Z\310\344\031\354\277E\324Z\310\344\031\354\277\325\202o\021\265`\367?E\324Z\310\344\031\354\277\325\202o\021\265`\367?E\324Z\310\344\031\354\277E\324Z\310\344\031\354\277E\324Z\310\344\031\354\277E\324Z\310\344\031\354\277e1\204Z\205\247\322?E\324Z\310\344\031\354\277e1\204Z\205\247\322?e1\204Z\205\247\322?E\324Z\310\344\031\354\277E\324Z\310\344\031\354\277E\324Z\310\344\031\354\277E\324Z\310\344\031\354\277E\324Z\310\344\031\354\277E\324Z\310\344\031\354\277E\324Z\310\344\031\354\277e1\204Z\205\247\322?\325\202o\021\265`\367?\325\202o\021\265`\367?e1\204Z\205\247\322?E\324Z\310\344\031\354\277e1\204Z\205\247\322?E\324Z\310\344\031\354\277\325\202o\021\265`\367?\325\202o\021\265`\367?\325\202o\021\265`\367?\325\202o\021\265`\367?\325\202o\021\265`\367?E\324Z\310\344\031\354\277\325\202o\021\265`\367?\325\202o\021\265`\367?E\324Z\310\344\031\354\277\325\202o\021\265`\367?E\324Z\310\344\031\354\277E\324Z\310\344\031\354\277\325\202o\021\265`\367?\325\202o\021\265`\367?E\324Z\310\344\031\354\277E\324Z\310\344\031\354\277E\324Z\310\344\031\354\277\325\202o\021\265`\367?\325\202o\021\265`\367?E\324Z\310\344\031\354\277e1\204Z\205\247\322?e1\204Z\205\247\322?\325\202o\021\265`\367?E\324Z\310\344\031\354\277`\245\224A\\h\367\277E\324Z\310\344\031\354\277E\324Z\310\344\031\354\277E\324Z\310\344\031\354\277\325\202o\021\265`\367?\325\202o\021\265`\367?\325\202o\021\265`\367?E\324Z\310\344\031\354\277e1\204Z\205\247\322?E\324Z\310\344\031\354\277\222\273\030\033\"\306\322\277\325\202o\021\265`\367?\325\202o\021\265`\367?\325\202o\021\265`\367?\325\202o\021\265`\367?\325\202o\021\265`\367?E\324Z\310\344\031\354\277e1\204Z\205\247\322?E\324Z\310\344\031\354\277e1\204Z\205\247\322?e1\204Z\205\247\322?e1\204Z\205\247\322?\325\202o\021\265`\367?E\324Z\310\344\031\354\277E\324Z\310\344\031\354\277E\324Z\310\344\031\354\277E\324Z\310\344\031\354\277e1\204Z\205\247\322?\325\202o\021\265`\367?E\324Z\310\344\031\354\277\325\202o\021\265`\367?\325\202o\021\265`\367?e1\204Z\205\247\322?E\324Z\310\344\031\354\277e1\204Z\205\247\322?\325\202o\021\265`\367?E\324Z\310\344\031\354\277\325\202o\021\265`\367?E\324Z\310\344\031\354\277E\324Z\310\344\031\354\277E\324Z\310\344\031\354\277E\324Z\310\344\031\354\277E\324Z\310\344\031\354\277\325\202o\021\265`\367?E\324Z\310\344\031\354\277E\324Z\310\344\031\354\277e1\204Z\205\247\322?E\324Z\310\344\031\354\277e1\204Z\205\247\322?e1\204Z\205\247\322?E\324Z\310\344\031\354\277e1\204Z\205\247\322?E\324Z\310\344\031\354\277E\324Z\310\344\031\354\277e1\204Z\205\247\322?E\324Z\310\344\031\354\277e1\204Z\205\247\322?e1\204Z\205\247\322?E\324Z\310\344\031\354\277E\324Z\310\344\031\354\277E\324Z\310\344\031\354\277E\324Z\310\344\031\354\277\325\202o\021\265`\367?E\324Z\310\344\031\354\277e1\204Z\205\247\322?e1\204Z\205\247\322?E\324Z\310\344\031\354\277\325\202o\021\265`\367?\325\202o\021\265`\367?e1\204Z\205\247\322?E\324Z\310\344\031\354\277E\324Z\310\344\031\354\277e1\204Z\205\247\322?\325\202o\021\265`\367?E\324Z\310\344\031\354\277E\324Z\310\344\031\354\277\325\202o\021\265`\367?e1\204Z\205\247\322?\325\202o\021\265`\367?e1\204Z\205\247\322?E\324Z\310\344\031\354\277E\324Z\310\344\031\354\277e1\204Z\205\247\322?E\324Z\310\344\031\354\277E\324Z\310\344\031\354\277e1\204Z\205\247\322?\325\202o\021\265`\367?e1\204Z\205\247\322?E\324Z\310\344\031\354\277E\324Z\310\344\031\354\277\325\202o\021\265`\367?e1\204Z\205\247\322?\325\202o\021\265`\367?\325\202o\021\265`\367?E\324Z\310\344\031\354\277e1\204Z\205\247\322?E\324Z\310\344\031\354\277E\324Z\310\344\031\354\277E\324Z\310\344\031\354\277E\324Z\310\344\031\354\277\325\202o\021\265`\367?E\324Z\310\344\031\354\277E\324Z\310\344\031\354\277E\324Z\310\344\031\354\277\325\202o\021\265`\367?\325\202o\021\265`\367?\325\202o\021\265`\367?\325\202o\021\265`\367?E\324Z\310\344\031\354\277`\245\224A\\h\367\277E\324Z\310\344\031\354\277\325\202o\021\265`\367?E\324Z\310\344\031\354\277e1\204Z\205\247\322?E\324Z\310\344\031\354\277E\324Z\310\344\031\354\277\325\202o\021\265`\367?e1\204Z\205\247\322?e1\204Z\205\247\322?\325\202o\021\265`\367?e1\204Z\205\247\322?\325\202o\021\265`\367?\325\202o\021\265`\367?\325\202o\021\265`\367?E\324Z\310\344\031\354\277E\324Z\310\344\031\354\277e1\204Z\205\247\322?\325\202o\021\265`\367?e1\204Z\205\247\322?E\324Z\310\344\031\354\277E\324Z\310\344\031\354\277e1\204Z\205\247\322?\325\202o\021\265`\367?e1\204Z\205\247\322?E\324Z\310\344\031\354\277\325\202o\021\265`\367?E\324Z\310\344\031\354\277e1\204Z\205\247\322?\325\202o\021\265`\367?e1\204Z\205\247\322?e1\204Z\205\247\322?e1\204Z\205\247\322?E\324Z\310\344\031\354\277E\324Z\310\344\031\354\277\325\202o\021\265`\367?E\324Z\310\344\031\354\277E\324Z\310\344\031\354\277E\324Z\310\344\031\354\277E\324Z\310\344\031\354\277\325\202o\021\265`\367?e1\204Z\205\247\322?e1\204Z\205\247\322?E\324Z\310\344\031\354\277E\324Z\310\344\031\354\277E\324Z\310\344\031\354\277\325\202o\021\265`\367?E\324Z\310\344\031\354\277E\324Z\310\344\031\354\277E\324Z\310\344\031\354\277\325\202o\021\265`\367?E\324Z\310\344\031\354\277E\324Z\310\344\031\354\277E\324Z\310\344\031\354\277E\324Z\310\344\031\354\277E\324Z\310\344\031\354\277E\324Z\310\344\031\354\277E\324Z\310\344\031\354\277E\324Z\310\344\031\354\277\222\273\030\033\"\306\322\277e1\204Z\205\247\322?\325\202o\021\265`\367?e1\204Z\205\247\322?\325\202o\021\265`\367?e1\204Z\205\247\322?E\324Z\310\344\031\354\277E\324Z\310\344\031\354\277E\324Z\310\344\031\354\277E\324Z\310\344\031\354\277\325\202o\021\265`\367?\325\202o\021\265`\367?\325\202o\021\265`\367?e1\204Z\205\247\322?\325\202o\021\265`\367?\325\202o\021\265`\367?E\324Z\310\344\031\354\277e1\204Z\205\247\322?`\245\224A\\h\367\277E\324Z\310\344\031\354\277e1\204Z\205\247\322?e1\204Z\205\247\322?E\324Z\310\344\031\354\277E\324Z\310\344\031\354\277e1\204Z\205\247\322?\325\202o\021\265`\367?E\324Z\310\344\031\354\277\325\202o\021\265`\367?\325\202o\021\265`\367?E\324Z\310\344\031\354\277E\324Z\310\344\031\354\277e1\204Z\205\247\322?"
      }
    }
  }
}
node {
  name: "normalize_element/component_2"
  op: "Const"
  device: "/device:CPU:0"
  attr {
    key: "_output_shapes"
    value {
      list {
        shape {
          dim {
            size: 313
          }
        }
      }
    }
  }
  attr {
    key: "dtype"
    value {
      type: DT_DOUBLE
    }
  }
  attr {
    key: "value"
    value {
      tensor {
        dtype: DT_DOUBLE
        tensor_shape {
          dim {
            size: 313
          }
        }
        tensor_content: "i\326Tu\0101\333\277\205\375\370\272\205\212\360?\254h\366\220q;\326?u\273\342u\236\346\357\277\373\310s\261k<\360?h\374Pk\305[\347\277W\373\200W\235\335\360\277R\327\362\203g/\377?\333r\217\335\375\004\353\277\"\334\2431\223\321\320\277\003\346\330s\215\233\340?\357\333\231\3601\241\353\277\'2J}y\247\245?\364\230\020t\353\307\361\277W\373\200W\235\335\360\277;\200\303<\002\022\356\277\025\256\256\026\232\331\354\277U\223FX\221\277\346\277\342\265\360\225\334\216\367?R\327\362\203g/\377?c\363\014\323\221\250\343?u\273\342u\236\346\357\277i\326Tu\0101\333\277\373\310s\261k<\360?Hm\235\375;\255\362?\231\377\353}=\237\325?\377\367\263?\\\032\360\277\023a\276R\220\266\360\277\ty-!\270\244\002@\262K>3\350\303\355\277\262K>3\350\303\355\27793\323x\370\356\361\277\303gX\202\022=\362\277\'P\263\232\351\265\367?;\200\303<\002\022\356\277\336\307\313a\253\r\347\277\"\334\2431\223\321\320\277;\200\303<\002\022\356\277\313^\301Nwq\346\277R>\n\324\343\266\352\277\342\265\360\225\334\216\367?u\273\342u\236\346\357\277\311\343\210\324\014>\336\277W\373\200W\235\335\360\277\316\263\375\322$z\342\277\377\367\263?\\\032\360\277\364\230\020t\353\307\361\277\023a\276R\220\266\360\277~\272\227\002\247\000\344\277\373\310s\261k<\360?;\200\303<\002\022\356\277U\223FX\221\277\346\277\036\255c\243\242\363\340\277\357\333\231\3601\241\353\277\003\346\330s\215\233\340?\'2J}y\247\245?\262K>3\350\303\355\277u\273\342u\236\346\357\277%\211\255\013\005\366\321?x\020\037\372K\357\353\277\342\265\360\225\334\216\367?\333r\217\335\375\004\353\277R>\n\324\343\266\352\277\336\307\313a\253\r\347\277\205\375\370\272\205\212\360?i\326Tu\0101\333\277\342\265\360\225\334\216\367?\036\255c\243\242\363\340\277u\273\342u\236\346\357\277\036\255c\243\242\363\340\277D\222vDiA\360\277\231\377\353}=\237\325?;\200\303<\002\022\356\277P\212\002\300]\014\343?\'2J}y\247\245?\005\232\340\207\023F\350\277;\200\303<\002\022\356\277i\326Tu\0101\333\277\262K>3\350\303\355\277\036\255c\243\242\363\340\277\360\265\235\372tv\337\277\377\367\263?\\\032\360\277\003\346\330s\215\233\340?\r\376\340\304\231\311\003@\342\265\360\225\334\216\367?\003\346\330s\215\233\340?\262K>3\350\303\355\277\003\346\330s\215\233\340?U\223FX\221\277\346\277v\\\027\346\305D\344?c\363\014\323\221\250\343?S\314@\311\254\377\360?\312\227\273\277\222\261\360?\353\260\177B\023\266\003@\336\307\313a\253\r\347\277R\327\362\203g/\377?\217(\377\206\360\315\001@\377\367\263?\\\032\360\277S\314@\311\254\377\360?;\200\303<\002\022\356\277;\200\303<\002\022\356\277&c\261\025H\313\345?Hm\235\375;\255\362?\023a\276R\220\266\360\277\316\263\375\322$z\342\277;\200\303<\002\022\356\277\342\265\360\225\334\216\367?\373\310s\261k<\360?\036\255c\243\242\363\340\277\231\377\353}=\237\325?%\211\255\013\005\366\321?Hm\235\375;\255\362?+l\365\255{~\351\277_\005\350\236`\'\363\277\033k%\232S\000\363\277;\200\303<\002\022\356\277;\200\303<\002\022\356\277Hm\235\375;\255\362?Hm\235\375;\255\362?R\327\362\203g/\377?X\350\202\334>\310\342\277\254h\366\220q;\326?\357\333\231\3601\241\353\277\365\205\022\371\214\262\343\277\373\310s\261k<\360?\r\376\340\304\231\311\003@\'P\263\232\351\265\367?Hm\235\375;\255\362?\342\265\360\225\334\216\367?\357\333\231\3601\241\353\277\003\346\330s\215\233\340?D\222vDiA\360\277\215\351\366\344\330\305\240?\231\377\353}=\237\325?%\211\255\013\005\366\321?\373\310s\261k<\360?\262K>3\350\303\355\277\336\307\313a\253\r\347\277\036\255c\243\242\363\340\277\2427p\244a0\351\277\215\351\366\344\330\305\240?R\327\362\203g/\377?X\350\202\334>\310\342\277R\327\362\203g/\377?\373\310s\261k<\360?\254h\366\220q;\326?X\350\202\334>\310\342\277\003\346\330s\215\233\340?\'P\263\232\351\265\367?\326\320b\225F\331\362\277R\327\362\203g/\377?\313^\301Nwq\346\277\3519m\250zu\363\277R>\n\324\343\266\352\277W\373\200W\235\335\360\277;\200\303<\002\022\356\277\301\230\0063\212\227\374?\262K>3\350\303\355\277i\326Tu\0101\333\277%\211\255\013\005\366\321?\262K>3\350\303\355\277\346AG\231p\310\227?\346AG\231p\310\227?i\326Tu\0101\333\277Q\0149t\334\305\301\277\313^\301Nwq\346\277R>\n\324\343\266\352\277\t\311 \026\004$\330\277\036\255c\243\242\363\340\277%\211\255\013\005\366\321?\003\346\330s\215\233\340?u\273\342u\236\346\357\277\367\345\0008\365\352\355\277\262K>3\350\303\355\277\333r\217\335\375\004\353\277Hm\235\375;\255\362?\262K>3\350\303\355\277\321A\t\361\355\371\315\277\254h\366\220q;\326?\036\255c\243\242\363\340\277Hm\235\375;\255\362?\205\375\370\272\205\212\360?%\211\255\013\005\366\321?h\374Pk\305[\347\277U\223FX\221\277\346\277\003\346\330s\215\233\340?R\327\362\203g/\377?u\273\342u\236\346\357\277\333r\217\335\375\004\353\277\342\265\360\225\334\216\367?\204\235\337\244\035\211\313\277\205\375\370\272\205\212\360?\003\346\330s\215\233\340?U\223FX\221\277\346\277\t\311 \026\004$\330\277\0342+)8\300\330\277?\325\377\300\257\032\352\277\357\333\231\3601\241\353\277\'2J}y\247\245?S\314@\311\254\377\360?\'2J}y\247\245?u\273\342u\236\346\357\277i\326Tu\0101\333\277\ty-!\270\244\002@%\211\255\013\005\366\321?\222\274\212\305^\025\371?\342\265\360\225\334\216\367?D\222vDiA\360\277\231\377\353}=\237\325?D\222vDiA\360\277\262K>3\350\303\355\277W\373\200W\235\335\360\277\225x\336\231\210\245\340\277\342\265\360\225\334\216\367?U\223FX\221\277\346\277\2427p\244a0\351\277h\374Pk\305[\347\277Hm\235\375;\255\362?\342\265\360\225\334\216\367?\'P\263\232\351\265\367?\342\265\360\225\334\216\367?\262K>3\350\303\355\277_\005\350\236`\'\363\277\364\230\020t\353\307\361\277\312\227\273\277\222\261\360?;\200\303<\002\022\356\277%\211\255\013\005\366\321?u\273\342u\236\346\357\277U\223FX\221\277\346\277Hm\235\375;\255\362?\346AG\231p\310\227?\003\346\330s\215\233\340?Hm\235\375;\255\362?\003\346\330s\215\233\340?\205\375\370\272\205\212\360?\222\274\212\305^\025\371?\312\227\273\277\222\261\360?;\200\303<\002\022\356\277\311\343\210\324\014>\336\277%\211\255\013\005\366\321?\373\310s\261k<\360?P\212\002\300]\014\343?u\273\342u\236\346\357\277\036\255c\243\242\363\340\277\003\346\330s\215\233\340?\301\230\0063\212\227\374?\003\346\330s\215\233\340?\2427p\244a0\351\277\342\265\360\225\334\216\367?+l\365\255{~\351\277\'2J}y\247\245?Hm\235\375;\255\362?%\211\255\013\005\366\321?\254h\366\220q;\326?\231\377\353}=\237\325?\336\307\313a\253\r\347\277\316\263\375\322$z\342\277\'P\263\232\351\265\367?\364\230\020t\353\307\361\277\262K>3\350\303\355\277\316\263\375\322$z\342\277\377\367\263?\\\032\360\277\373\310s\261k<\360?\254h\366\220q;\326?P\212\002\300]\014\343?R>\n\324\343\266\352\277+l\365\255{~\351\277\336\307\313a\253\r\347\277\'P\263\232\351\265\367?h\374Pk\305[\347\277\313^\301Nwq\346\277\005\232\340\207\023F\350\277R\327\362\203g/\377?U\223FX\221\277\346\277W\373\200W\235\335\360\277\336\307\313a\253\r\347\277;\200\303<\002\022\356\277\225x\336\231\210\245\340\277\336\307\313a\253\r\347\277\262K>3\350\303\355\277X\350\202\334>\310\342\277\010\320\036P\030\252\276\277%\211\255\013\005\366\321?2\257VfZ\010\366?\311\343\210\324\014>\336\277c\363\014\323\221\250\343?\334L\223\347@\332\336\277\377\367\263?\\\032\360\277W\373\200W\235\335\360\277\357\333\231\3601\241\353\277\033k%\232S\000\363\277\205\375\370\272\205\212\360?R\327\362\203g/\377?R\327\362\203g/\377?P\212\002\300]\014\343?\342\265\360\225\334\216\367?\'P\263\232\351\265\367?i\326Tu\0101\333\277\t\311 \026\004$\330\277_\005\350\236`\'\363\277\341/\006a\267+\361\277\254h\366\220q;\326?\'2J}y\247\245?\030\003\353\232G\342\350\277i\326Tu\0101\333\277\254h\366\220q;\326?\222\274\212\305^\025\371?U\223FX\221\277\346\277\r\376\340\304\231\311\003@Hm\235\375;\255\362?\377\367\263?\\\032\360\277\t\311 \026\004$\330\277%\211\255\013\005\366\321?"
      }
    }
  }
}
node {
  name: "normalize_element/component_3"
  op: "Const"
  device: "/device:CPU:0"
  attr {
    key: "_output_shapes"
    value {
      list {
        shape {
          dim {
            size: 313
          }
        }
      }
    }
  }
  attr {
    key: "dtype"
    value {
      type: DT_DOUBLE
    }
  }
  attr {
    key: "value"
    value {
      tensor {
        dtype: DT_DOUBLE
        tensor_shape {
          dim {
            size: 313
          }
        }
        tensor_content: "\263j\314\365+\227\340\277\220g-\357\245\346\362?\300\033|AX<\273\277b C\362\306\231\356\277\243\337|\246\310~\344?\300\033|AX<\273\277\245^\373\207\335\037\360\2777\374\317\250\3333\375?\037\030\002\250\344z\352\277\376J\n\323\266\367\346?}\201\214\227\3745\304\277\007\265\265\305\330 \354\277\1778\345\315c\210\337\277:\261\365\273H\002\363\277\225\034\203\3506{\365\277iA\347N\010\211\345\277\'9\246\004&j\341\277b C\362\306\231\356\277\364\363\216^\371\024\371?\220g-\357\245\346\362?\372\'c9\237J\327\277\356Qi\343\314\306\355\277\372\'c9\237J\327\277\243\337|\246\310~\344?\220g-\357\245\346\362?\364\363\216^\371\024\371?\304\254t{\366\001\350\277\245^\373\207\335\037\360\277\240\016\352h\262\327\006@\372\'c9\237J\327\277\'9\246\004&j\341\277\225\034\203\3506{\365\277\225\034\203\3506{\365\277\035\231S\340\253\023\362?+\356\373\375\266\376\323\277\260\376}\222{<\334\277$;\251A\374\'\332?\311a\312t\207\226\332\277\311a\312t\207\226\332\277\304\254t{\366\001\350\277\262\353M\024\027\366\364?[5\026\341\271\021\365\277L\273\363\322\344\201\307\277\007\265\265\305\330 \354\277\263j\314\365+\227\340\277|\2716\006+!\367\277:\261\365\273H\002\363\277\245^\373\207\335\037\360\277\ti\276\247n\031\254\277(\360\376:\215\274\354?\360\207\020\025%\364\367\277\237*\'\2557\352\321?\037\030\002\250\344z\352\2778{N\212\360\324\350\277P\2310B\350\352\226?\1778\345\315c\210\337\277Q\336\232l\374.\347\277\306\342\033\255N/\362\277P\2310B\350\352\226?\352.\302I\265\031\316\277\323on9\210\005\367?\304\254t{\366\001\350\277\\\264\224\302\316\262\320\277\366r\r@\016\266\344\277\220g-\357\245\346\362?\372\'c9\237J\327\277\324\245\025k\3402\341?\304\254t{\366\001\350\277\356Qi\343\314\306\355\277\372\'c9\237J\327\277\223\346\333\266\336M\353\277\237*\'\2557\352\321?\311a\312t\207\226\332\27744J1\346X\303?\1778\345\315c\210\337\277\304\254t{\366\001\350\277\306\342\033\255N/\362\277\372\'c9\237J\327\277\356Qi\343\314\306\355\277iA\347N\010\211\345\277\033\365Z\016\315\315\312\277\223\346\333\266\336M\353\277\300\033|AX<\273\277\301\222\n\216#\347\010@\025x\257\203j$\373?\037\030\002\250\344z\352\277\356Qi\343\314\306\355\277iA\347N\010\211\345\277\202\24431\024\343\343\27744J1\346X\303?44J1\346X\303?\027\256V\265\302Q\345?o\343\014\3124\327\360?\261Pz\373j\337\007@L\273\363\322\344\201\307\277\025x\257\203j$\373?5a\314\251\013W\003@|\2716\006+!\367\277\027\256V\265\302Q\345?b C\362\306\231\356\277b C\362\306\231\356\277\324\245\025k\3402\341?\220\314Y\326\371\317\005@\245^\373\207\335\037\360\277\263j\314\365+\227\340\277\304\254t{\366\001\350\277\364\363\216^\371\024\371?\234\276\330I\207\217\355?\'9\246\004&j\341\27744J1\346X\303?\300\033|AX<\273\277\220g-\357\245\346\362?\311a\312t\207\226\332\277\372\'c9\237J\327\277\245^\373\207\335\037\360\277iA\347N\010\211\345\277\304\254t{\366\001\350\277\220g-\357\245\346\362?\220g-\357\245\346\362?\025x\257\203j$\373?\033\365Z\016\315\315\312\277\372\'c9\237J\327\277\030-\325\226\327\362\360\277\234\003Ct\233\323\235\277ASK\035\231\026\353?\301\222\n\216#\347\010@\0046\007\376\237\271\363?\220g-\357\245\346\362?P\2310B\350\352\226?\030-\325\226\327\362\360\277\300\033|AX<\273\277\306\342\033\255N/\362\277\372\'c9\237J\327\27744J1\346X\303?\300\033|AX<\273\277(\360\376:\215\274\354?\007\265\265\305\330 \354\277\311a\312t\207\226\332\277\037\030\002\250\344z\352\277\352.\302I\265\031\316\277L\273\363\322\344\201\307\277\220g-\357\245\346\362?\372\'c9\237J\327\277\322\324\232 \334\356\t@\234\276\330I\207\217\355?\321\247\030\250\266\360\311?\352.\302I\265\031\316\27744J1\346X\303?\203[\214g{5\357?z\203\217\324\322\363\354\277h\302hm\363\347\371?\202\24431\024\343\343\277B\322\311\376\255\267\366\277\007\265\265\305\330 \354\277\007\265\265\305\330 \354\277\360\207\020\025%\364\367\277X\200\360\315LC\377?\030-\325\226\327\362\360\277\372\'c9\237J\327\277\352.\302I\265\031\316\277\202\24431\024\343\343\277\352.\302I\265\031\316\277\352.\302I\265\031\316\277\311a\312t\207\226\332\27744J1\346X\303?\1778\345\315c\210\337\277\304\254t{\366\001\350\277\363t\020}\344s\335?\311a\312t\207\226\332\27744J1\346X\303?P\2310B\350\352\226?b C\362\306\231\356\277\202\24431\024\343\343\277\007\265\265\305\330 \354\277\304\254t{\366\001\350\277\234\276\330I\207\217\355?\306\342\033\255N/\362\277L\273\363\322\344\201\307\277\300\033|AX<\273\277\341\304\026W\223\360\330\277\234\276\330I\207\217\355?\220g-\357\245\346\362?P\2310B\350\352\226?+\356\373\375\266\376\323\277\321\247\030\250\266\360\311?\037\030\002\250\344z\352\277M\304\030\214\027\261\001@b C\362\306\231\356\277\372\'c9\237J\327\277\364\363\216^\371\024\371?\237*\'\2557\352\321?\220g-\357\245\346\362?\311a\312t\207\226\332\277\321\247\030\250\266\360\311?P\2310B\350\352\226?\217\r)\376Z\352\262?\260\376}\222{<\334\277\304\254t{\366\001\350\277\016\326Y\"\032\020\343\277nH9\261\210\300\003@\352.\302I\265\031\316\277[5\026\341\271\021\365\277\372\'c9\237J\327\277\240\016\352h\262\327\006@\1778\345\315c\210\337\277\240\016\352h\262\327\006@o\343\014\3124\327\360?\223\346\333\266\336M\353\277P\2310B\350\352\226?R\024B\236T\\\361\277\326\356\034\001\301l\357\277\245^\373\207\335\037\360\277\202\24431\024\343\343\277o\343\014\3124\327\360?44J1\346X\303?\352.\302I\265\031\316\277L\273\363\322\344\201\307\277\220g-\357\245\346\362?o\343\014\3124\327\360?\264!%,\223\351\353?o\343\014\3124\327\360?\'9\246\004&j\341\277L\273\363\322\344\201\307\277b C\362\306\231\356\277o\343\014\3124\327\360?\304\254t{\366\001\350\277\300\033|AX<\273\277\007\265\265\305\330 \354\277}\201\214\227\3745\304\277\220g-\357\245\346\362?\352.\302I\265\031\316\27744J1\346X\303?\220g-\357\245\346\362?\311a\312t\207\226\332\277$;\251A\374\'\332?7\374\317\250\3333\375?\027\256V\265\302Q\345?b C\362\306\231\356\277b C\362\306\231\356\277P\2310B\350\352\226?\027\256V\265\302Q\345?44J1\346X\303?b C\362\306\231\356\277\311a\312t\207\226\332\277\311a\312t\207\226\332\277\025x\257\203j$\373?\300\033|AX<\273\277\352.\302I\265\031\316\277\262\353M\024\027\366\364?\311a\312t\207\226\332\277\311a\312t\207\226\332\277\220g-\357\245\346\362?\352.\302I\265\031\316\277\300\033|AX<\273\277P\2310B\350\352\226?\304\254t{\366\001\350\277\263j\314\365+\227\340\277W\200\300\347(}\362?b C\362\306\231\356\277\366r\r@\016\266\344\277\263j\314\365+\227\340\277|\2716\006+!\367\277\234\276\330I\207\217\355?\372\'c9\237J\327\27744J1\346X\303?DQH\340\302X\322\277\311a\312t\207\226\332\277\311a\312t\207\226\332\277>\035t\005\035#\364?\232\007\200\023 =\342\277\033\365Z\016\315\315\312\277\372\'c9\237J\327\277\220g-\357\245\346\362?Q\336\232l\374.\347\277\245^\373\207\335\037\360\2778{N\212\360\324\350\277iA\347N\010\211\345\277\223\346\333\266\336M\353\277L\273\363\322\344\201\307\277\356Qi\343\314\306\355\277\352.\302I\265\031\316\277\335\017\301]\002\\\346\27744J1\346X\303?\323on9\210\005\367?$;\251A\374\'\332?44J1\346X\303?Q\336\232l\374.\347\277\304\254t{\366\001\350\277\007\265\265\305\330 \354\277\007\265\265\305\330 \354\277\245^\373\207\335\037\360\277$\037<\027SO\002@7\374\317\250\3333\375?M\304\030\214\027\261\001@\352.\302I\265\031\316\277X\200\360\315LC\377?>\035t\005\035#\364?\372\'c9\237J\327\277-\201\367t+\202\271?\300\033|AX<\273\277\214\373\256\245\321\305\361\277\300\033|AX<\273\277\1778\345\315c\210\337\277\022\213\257\033\253\244\325\277\1778\345\315c\210\337\277\300\033|AX<\273\277\025x\257\203j$\373?44J1\346X\303?\301\222\n\216#\347\010@\220g-\357\245\346\362?\007\265\265\305\330 \354\277+\356\373\375\266\376\323\277\372\'c9\237J\327\277"
      }
    }
  }
}
node {
  name: "normalize_element/component_4"
  op: "Const"
  device: "/device:CPU:0"
  attr {
    key: "_output_shapes"
    value {
      list {
        shape {
          dim {
            size: 313
          }
        }
      }
    }
  }
  attr {
    key: "dtype"
    value {
      type: DT_INT64
    }
  }
  attr {
    key: "value"
    value {
      tensor {
        dtype: DT_INT64
        tensor_shape {
          dim {
            size: 313
          }
        }
        tensor_content: "Q\000\000\000\000\000\000\000I\000\000\000\000\000\000\000G\000\000\000\000\000\000\000R\000\000\000\000\000\000\000O\000\000\000\000\000\000\000Q\000\000\000\000\000\000\000Q\000\000\000\000\000\000\000H\000\000\000\000\000\000\000P\000\000\000\000\000\000\000P\000\000\000\000\000\000\000M\000\000\000\000\000\000\000O\000\000\000\000\000\000\000N\000\000\000\000\000\000\000M\000\000\000\000\000\000\000L\000\000\000\000\000\000\000P\000\000\000\000\000\000\000L\000\000\000\000\000\000\000P\000\000\000\000\000\000\000H\000\000\000\000\000\000\000I\000\000\000\000\000\000\000O\000\000\000\000\000\000\000R\000\000\000\000\000\000\000O\000\000\000\000\000\000\000K\000\000\000\000\000\000\000I\000\000\000\000\000\000\000N\000\000\000\000\000\000\000J\000\000\000\000\000\000\000O\000\000\000\000\000\000\000I\000\000\000\000\000\000\000I\000\000\000\000\000\000\000M\000\000\000\000\000\000\000N\000\000\000\000\000\000\000J\000\000\000\000\000\000\000K\000\000\000\000\000\000\000H\000\000\000\000\000\000\000H\000\000\000\000\000\000\000L\000\000\000\000\000\000\000F\000\000\000\000\000\000\000P\000\000\000\000\000\000\000P\000\000\000\000\000\000\000H\000\000\000\000\000\000\000K\000\000\000\000\000\000\000M\000\000\000\000\000\000\000L\000\000\000\000\000\000\000R\000\000\000\000\000\000\000N\000\000\000\000\000\000\000Q\000\000\000\000\000\000\000P\000\000\000\000\000\000\000L\000\000\000\000\000\000\000N\000\000\000\000\000\000\000I\000\000\000\000\000\000\000K\000\000\000\000\000\000\000I\000\000\000\000\000\000\000Q\000\000\000\000\000\000\000L\000\000\000\000\000\000\000F\000\000\000\000\000\000\000P\000\000\000\000\000\000\000N\000\000\000\000\000\000\000J\000\000\000\000\000\000\000F\000\000\000\000\000\000\000H\000\000\000\000\000\000\000R\000\000\000\000\000\000\000I\000\000\000\000\000\000\000R\000\000\000\000\000\000\000J\000\000\000\000\000\000\000R\000\000\000\000\000\000\000O\000\000\000\000\000\000\000J\000\000\000\000\000\000\000Q\000\000\000\000\000\000\000G\000\000\000\000\000\000\000O\000\000\000\000\000\000\000O\000\000\000\000\000\000\000H\000\000\000\000\000\000\000G\000\000\000\000\000\000\000O\000\000\000\000\000\000\000I\000\000\000\000\000\000\000G\000\000\000\000\000\000\000O\000\000\000\000\000\000\000M\000\000\000\000\000\000\000K\000\000\000\000\000\000\000R\000\000\000\000\000\000\000K\000\000\000\000\000\000\000G\000\000\000\000\000\000\000I\000\000\000\000\000\000\000M\000\000\000\000\000\000\000K\000\000\000\000\000\000\000N\000\000\000\000\000\000\000L\000\000\000\000\000\000\000O\000\000\000\000\000\000\000K\000\000\000\000\000\000\000M\000\000\000\000\000\000\000H\000\000\000\000\000\000\000M\000\000\000\000\000\000\000F\000\000\000\000\000\000\000H\000\000\000\000\000\000\000G\000\000\000\000\000\000\000F\000\000\000\000\000\000\000P\000\000\000\000\000\000\000F\000\000\000\000\000\000\000M\000\000\000\000\000\000\000P\000\000\000\000\000\000\000O\000\000\000\000\000\000\000F\000\000\000\000\000\000\000P\000\000\000\000\000\000\000R\000\000\000\000\000\000\000L\000\000\000\000\000\000\000F\000\000\000\000\000\000\000H\000\000\000\000\000\000\000K\000\000\000\000\000\000\000K\000\000\000\000\000\000\000M\000\000\000\000\000\000\000I\000\000\000\000\000\000\000R\000\000\000\000\000\000\000I\000\000\000\000\000\000\000J\000\000\000\000\000\000\000M\000\000\000\000\000\000\000M\000\000\000\000\000\000\000L\000\000\000\000\000\000\000L\000\000\000\000\000\000\000K\000\000\000\000\000\000\000K\000\000\000\000\000\000\000L\000\000\000\000\000\000\000R\000\000\000\000\000\000\000N\000\000\000\000\000\000\000I\000\000\000\000\000\000\000F\000\000\000\000\000\000\000L\000\000\000\000\000\000\000H\000\000\000\000\000\000\000Q\000\000\000\000\000\000\000Q\000\000\000\000\000\000\000J\000\000\000\000\000\000\000P\000\000\000\000\000\000\000F\000\000\000\000\000\000\000Q\000\000\000\000\000\000\000N\000\000\000\000\000\000\000N\000\000\000\000\000\000\000R\000\000\000\000\000\000\000K\000\000\000\000\000\000\000G\000\000\000\000\000\000\000G\000\000\000\000\000\000\000F\000\000\000\000\000\000\000I\000\000\000\000\000\000\000P\000\000\000\000\000\000\000I\000\000\000\000\000\000\000J\000\000\000\000\000\000\000R\000\000\000\000\000\000\000N\000\000\000\000\000\000\000L\000\000\000\000\000\000\000O\000\000\000\000\000\000\000G\000\000\000\000\000\000\000I\000\000\000\000\000\000\000J\000\000\000\000\000\000\000I\000\000\000\000\000\000\000R\000\000\000\000\000\000\000M\000\000\000\000\000\000\000F\000\000\000\000\000\000\000G\000\000\000\000\000\000\000M\000\000\000\000\000\000\000P\000\000\000\000\000\000\000K\000\000\000\000\000\000\000H\000\000\000\000\000\000\000F\000\000\000\000\000\000\000J\000\000\000\000\000\000\000M\000\000\000\000\000\000\000R\000\000\000\000\000\000\000I\000\000\000\000\000\000\000Q\000\000\000\000\000\000\000I\000\000\000\000\000\000\000N\000\000\000\000\000\000\000N\000\000\000\000\000\000\000K\000\000\000\000\000\000\000P\000\000\000\000\000\000\000H\000\000\000\000\000\000\000P\000\000\000\000\000\000\000Q\000\000\000\000\000\000\000N\000\000\000\000\000\000\000L\000\000\000\000\000\000\000K\000\000\000\000\000\000\000I\000\000\000\000\000\000\000M\000\000\000\000\000\000\000N\000\000\000\000\000\000\000H\000\000\000\000\000\000\000G\000\000\000\000\000\000\000P\000\000\000\000\000\000\000H\000\000\000\000\000\000\000K\000\000\000\000\000\000\000M\000\000\000\000\000\000\000R\000\000\000\000\000\000\000F\000\000\000\000\000\000\000G\000\000\000\000\000\000\000O\000\000\000\000\000\000\000H\000\000\000\000\000\000\000G\000\000\000\000\000\000\000I\000\000\000\000\000\000\000P\000\000\000\000\000\000\000I\000\000\000\000\000\000\000F\000\000\000\000\000\000\000N\000\000\000\000\000\000\000L\000\000\000\000\000\000\000F\000\000\000\000\000\000\000N\000\000\000\000\000\000\000L\000\000\000\000\000\000\000P\000\000\000\000\000\000\000F\000\000\000\000\000\000\000Q\000\000\000\000\000\000\000F\000\000\000\000\000\000\000I\000\000\000\000\000\000\000N\000\000\000\000\000\000\000N\000\000\000\000\000\000\000P\000\000\000\000\000\000\000N\000\000\000\000\000\000\000O\000\000\000\000\000\000\000Q\000\000\000\000\000\000\000I\000\000\000\000\000\000\000M\000\000\000\000\000\000\000F\000\000\000\000\000\000\000N\000\000\000\000\000\000\000J\000\000\000\000\000\000\000K\000\000\000\000\000\000\000O\000\000\000\000\000\000\000L\000\000\000\000\000\000\000J\000\000\000\000\000\000\000H\000\000\000\000\000\000\000J\000\000\000\000\000\000\000N\000\000\000\000\000\000\000K\000\000\000\000\000\000\000L\000\000\000\000\000\000\000G\000\000\000\000\000\000\000K\000\000\000\000\000\000\000H\000\000\000\000\000\000\000I\000\000\000\000\000\000\000M\000\000\000\000\000\000\000G\000\000\000\000\000\000\000I\000\000\000\000\000\000\000L\000\000\000\000\000\000\000I\000\000\000\000\000\000\000O\000\000\000\000\000\000\000Q\000\000\000\000\000\000\000P\000\000\000\000\000\000\000I\000\000\000\000\000\000\000M\000\000\000\000\000\000\000J\000\000\000\000\000\000\000R\000\000\000\000\000\000\000O\000\000\000\000\000\000\000G\000\000\000\000\000\000\000F\000\000\000\000\000\000\000J\000\000\000\000\000\000\000H\000\000\000\000\000\000\000O\000\000\000\000\000\000\000R\000\000\000\000\000\000\000Q\000\000\000\000\000\000\000I\000\000\000\000\000\000\000K\000\000\000\000\000\000\000I\000\000\000\000\000\000\000N\000\000\000\000\000\000\000P\000\000\000\000\000\000\000Q\000\000\000\000\000\000\000M\000\000\000\000\000\000\000J\000\000\000\000\000\000\000L\000\000\000\000\000\000\000R\000\000\000\000\000\000\000P\000\000\000\000\000\000\000J\000\000\000\000\000\000\000N\000\000\000\000\000\000\000K\000\000\000\000\000\000\000J\000\000\000\000\000\000\000R\000\000\000\000\000\000\000L\000\000\000\000\000\000\000G\000\000\000\000\000\000\000R\000\000\000\000\000\000\000M\000\000\000\000\000\000\000G\000\000\000\000\000\000\000F\000\000\000\000\000\000\000H\000\000\000\000\000\000\000P\000\000\000\000\000\000\000Q\000\000\000\000\000\000\000J\000\000\000\000\000\000\000O\000\000\000\000\000\000\000J\000\000\000\000\000\000\000N\000\000\000\000\000\000\000N\000\000\000\000\000\000\000O\000\000\000\000\000\000\000O\000\000\000\000\000\000\000F\000\000\000\000\000\000\000Q\000\000\000\000\000\000\000N\000\000\000\000\000\000\000Q\000\000\000\000\000\000\000J\000\000\000\000\000\000\000N\000\000\000\000\000\000\000O\000\000\000\000\000\000\000G\000\000\000\000\000\000\000F\000\000\000\000\000\000\000G\000\000\000\000\000\000\000H\000\000\000\000\000\000\000L\000\000\000\000\000\000\000I\000\000\000\000\000\000\000H\000\000\000\000\000\000\000R\000\000\000\000\000\000\000L\000\000\000\000\000\000\000P\000\000\000\000\000\000\000J\000\000\000\000\000\000\000K\000\000\000\000\000\000\000N\000\000\000\000\000\000\000I\000\000\000\000\000\000\000N\000\000\000\000\000\000\000J\000\000\000\000\000\000\000I\000\000\000\000\000\000\000I\000\000\000\000\000\000\000F\000\000\000\000\000\000\000K\000\000\000\000\000\000\000K\000\000\000\000\000\000\000Q\000\000\000\000\000\000\000P\000\000\000\000\000\000\000"
      }
    }
  }
}
node {
  name: "normalize_element/component_5"
  op: "Const"
  device: "/device:CPU:0"
  attr {
    key: "_output_shapes"
    value {
      list {
        shape {
          dim {
            size: 313
          }
        }
      }
    }
  }
  attr {
    key: "dtype"
    value {
      type: DT_INT64
    }
  }
  attr {
    key: "value"
    value {
      tensor {
        dtype: DT_INT64
        tensor_shape {
          dim {
            size: 313
          }
        }
        tensor_content: "\001\000\000\000\000\000\000\000\001\000\000\000\000\000\000\000\001\000\000\000\000\000\000\000\003\000\000\000\000\000\000\000\001\000\000\000\000\000\000\000\003\000\000\000\000\000\000\000\003\000\000\000\000\000\000\000\001\000\000\000\000\000\000\000\003\000\000\000\000\000\000\000\003\000\000\000\000\000\000\000\001\000\000\000\000\000\000\000\001\000\000\000\000\000\000\000\001\000\000\000\000\000\000\000\002\000\000\000\000\000\000\000\001\000\000\000\000\000\000\000\002\000\000\000\000\000\000\000\002\000\000\000\000\000\000\000\002\000\000\000\000\000\000\000\001\000\000\000\000\000\000\000\001\000\000\000\000\000\000\000\001\000\000\000\000\000\000\000\003\000\000\000\000\000\000\000\001\000\000\000\000\000\000\000\001\000\000\000\000\000\000\000\001\000\000\000\000\000\000\000\001\000\000\000\000\000\000\000\001\000\000\000\000\000\000\000\003\000\000\000\000\000\000\000\001\000\000\000\000\000\000\000\002\000\000\000\000\000\000\000\001\000\000\000\000\000\000\000\003\000\000\000\000\000\000\000\003\000\000\000\000\000\000\000\001\000\000\000\000\000\000\000\003\000\000\000\000\000\000\000\002\000\000\000\000\000\000\000\002\000\000\000\000\000\000\000\003\000\000\000\000\000\000\000\002\000\000\000\000\000\000\000\003\000\000\000\000\000\000\000\001\000\000\000\000\000\000\000\003\000\000\000\000\000\000\000\003\000\000\000\000\000\000\000\003\000\000\000\000\000\000\000\001\000\000\000\000\000\000\000\002\000\000\000\000\000\000\000\003\000\000\000\000\000\000\000\003\000\000\000\000\000\000\000\002\000\000\000\000\000\000\000\001\000\000\000\000\000\000\000\002\000\000\000\000\000\000\000\002\000\000\000\000\000\000\000\001\000\000\000\000\000\000\000\002\000\000\000\000\000\000\000\001\000\000\000\000\000\000\000\001\000\000\000\000\000\000\000\002\000\000\000\000\000\000\000\003\000\000\000\000\000\000\000\001\000\000\000\000\000\000\000\002\000\000\000\000\000\000\000\001\000\000\000\000\000\000\000\003\000\000\000\000\000\000\000\003\000\000\000\000\000\000\000\001\000\000\000\000\000\000\000\001\000\000\000\000\000\000\000\001\000\000\000\000\000\000\000\001\000\000\000\000\000\000\000\001\000\000\000\000\000\000\000\003\000\000\000\000\000\000\000\001\000\000\000\000\000\000\000\002\000\000\000\000\000\000\000\001\000\000\000\000\000\000\000\003\000\000\000\000\000\000\000\001\000\000\000\000\000\000\000\001\000\000\000\000\000\000\000\002\000\000\000\000\000\000\000\002\000\000\000\000\000\000\000\001\000\000\000\000\000\000\000\003\000\000\000\000\000\000\000\001\000\000\000\000\000\000\000\003\000\000\000\000\000\000\000\002\000\000\000\000\000\000\000\001\000\000\000\000\000\000\000\001\000\000\000\000\000\000\000\001\000\000\000\000\000\000\000\001\000\000\000\000\000\000\000\003\000\000\000\000\000\000\000\001\000\000\000\000\000\000\000\001\000\000\000\000\000\000\000\001\000\000\000\000\000\000\000\001\000\000\000\000\000\000\000\001\000\000\000\000\000\000\000\001\000\000\000\000\000\000\000\001\000\000\000\000\000\000\000\003\000\000\000\000\000\000\000\001\000\000\000\000\000\000\000\001\000\000\000\000\000\000\000\002\000\000\000\000\000\000\000\001\000\000\000\000\000\000\000\003\000\000\000\000\000\000\000\003\000\000\000\000\000\000\000\001\000\000\000\000\000\000\000\001\000\000\000\000\000\000\000\003\000\000\000\000\000\000\000\001\000\000\000\000\000\000\000\003\000\000\000\000\000\000\000\001\000\000\000\000\000\000\000\001\000\000\000\000\000\000\000\001\000\000\000\000\000\000\000\001\000\000\000\000\000\000\000\001\000\000\000\000\000\000\000\001\000\000\000\000\000\000\000\001\000\000\000\000\000\000\000\003\000\000\000\000\000\000\000\003\000\000\000\000\000\000\000\002\000\000\000\000\000\000\000\003\000\000\000\000\000\000\000\001\000\000\000\000\000\000\000\001\000\000\000\000\000\000\000\001\000\000\000\000\000\000\000\003\000\000\000\000\000\000\000\001\000\000\000\000\000\000\000\001\000\000\000\000\000\000\000\002\000\000\000\000\000\000\000\001\000\000\000\000\000\000\000\001\000\000\000\000\000\000\000\001\000\000\000\000\000\000\000\001\000\000\000\000\000\000\000\001\000\000\000\000\000\000\000\001\000\000\000\000\000\000\000\001\000\000\000\000\000\000\000\003\000\000\000\000\000\000\000\001\000\000\000\000\000\000\000\001\000\000\000\000\000\000\000\001\000\000\000\000\000\000\000\001\000\000\000\000\000\000\000\001\000\000\000\000\000\000\000\002\000\000\000\000\000\000\000\001\000\000\000\000\000\000\000\003\000\000\000\000\000\000\000\001\000\000\000\000\000\000\000\001\000\000\000\000\000\000\000\003\000\000\000\000\000\000\000\001\000\000\000\000\000\000\000\001\000\000\000\000\000\000\000\001\000\000\000\000\000\000\000\003\000\000\000\000\000\000\000\001\000\000\000\000\000\000\000\001\000\000\000\000\000\000\000\003\000\000\000\000\000\000\000\001\000\000\000\000\000\000\000\001\000\000\000\000\000\000\000\002\000\000\000\000\000\000\000\003\000\000\000\000\000\000\000\003\000\000\000\000\000\000\000\002\000\000\000\000\000\000\000\001\000\000\000\000\000\000\000\001\000\000\000\000\000\000\000\001\000\000\000\000\000\000\000\001\000\000\000\000\000\000\000\001\000\000\000\000\000\000\000\001\000\000\000\000\000\000\000\001\000\000\000\000\000\000\000\001\000\000\000\000\000\000\000\001\000\000\000\000\000\000\000\001\000\000\000\000\000\000\000\003\000\000\000\000\000\000\000\003\000\000\000\000\000\000\000\001\000\000\000\000\000\000\000\001\000\000\000\000\000\000\000\001\000\000\000\000\000\000\000\003\000\000\000\000\000\000\000\001\000\000\000\000\000\000\000\001\000\000\000\000\000\000\000\003\000\000\000\000\000\000\000\001\000\000\000\000\000\000\000\001\000\000\000\000\000\000\000\001\000\000\000\000\000\000\000\001\000\000\000\000\000\000\000\001\000\000\000\000\000\000\000\001\000\000\000\000\000\000\000\001\000\000\000\000\000\000\000\001\000\000\000\000\000\000\000\003\000\000\000\000\000\000\000\002\000\000\000\000\000\000\000\001\000\000\000\000\000\000\000\001\000\000\000\000\000\000\000\003\000\000\000\000\000\000\000\002\000\000\000\000\000\000\000\001\000\000\000\000\000\000\000\001\000\000\000\000\000\000\000\001\000\000\000\000\000\000\000\001\000\000\000\000\000\000\000\002\000\000\000\000\000\000\000\001\000\000\000\000\000\000\000\001\000\000\000\000\000\000\000\002\000\000\000\000\000\000\000\001\000\000\000\000\000\000\000\001\000\000\000\000\000\000\000\001\000\000\000\000\000\000\000\001\000\000\000\000\000\000\000\003\000\000\000\000\000\000\000\001\000\000\000\000\000\000\000\001\000\000\000\000\000\000\000\001\000\000\000\000\000\000\000\001\000\000\000\000\000\000\000\001\000\000\000\000\000\000\000\002\000\000\000\000\000\000\000\001\000\000\000\000\000\000\000\002\000\000\000\000\000\000\000\001\000\000\000\000\000\000\000\003\000\000\000\000\000\000\000\002\000\000\000\000\000\000\000\001\000\000\000\000\000\000\000\002\000\000\000\000\000\000\000\003\000\000\000\000\000\000\000\003\000\000\000\000\000\000\000\001\000\000\000\000\000\000\000\001\000\000\000\000\000\000\000\001\000\000\000\000\000\000\000\001\000\000\000\000\000\000\000\002\000\000\000\000\000\000\000\003\000\000\000\000\000\000\000\002\000\000\000\000\000\000\000\001\000\000\000\000\000\000\000\003\000\000\000\000\000\000\000\001\000\000\000\000\000\000\000\001\000\000\000\000\000\000\000\002\000\000\000\000\000\000\000\001\000\000\000\000\000\000\000\001\000\000\000\000\000\000\000\001\000\000\000\000\000\000\000\001\000\000\000\000\000\000\000\001\000\000\000\000\000\000\000\001\000\000\000\000\000\000\000\001\000\000\000\000\000\000\000\001\000\000\000\000\000\000\000\003\000\000\000\000\000\000\000\002\000\000\000\000\000\000\000\001\000\000\000\000\000\000\000\001\000\000\000\000\000\000\000\001\000\000\000\000\000\000\000\003\000\000\000\000\000\000\000\001\000\000\000\000\000\000\000\001\000\000\000\000\000\000\000\001\000\000\000\000\000\000\000\001\000\000\000\000\000\000\000\003\000\000\000\000\000\000\000\001\000\000\000\000\000\000\000\001\000\000\000\000\000\000\000\001\000\000\000\000\000\000\000\001\000\000\000\000\000\000\000\001\000\000\000\000\000\000\000\001\000\000\000\000\000\000\000\001\000\000\000\000\000\000\000\003\000\000\000\000\000\000\000\001\000\000\000\000\000\000\000\001\000\000\000\000\000\000\000\003\000\000\000\000\000\000\000\001\000\000\000\000\000\000\000\001\000\000\000\000\000\000\000\002\000\000\000\000\000\000\000\001\000\000\000\000\000\000\000\001\000\000\000\000\000\000\000\001\000\000\000\000\000\000\000\003\000\000\000\000\000\000\000\001\000\000\000\000\000\000\000\002\000\000\000\000\000\000\000\001\000\000\000\000\000\000\000\001\000\000\000\000\000\000\000\001\000\000\000\000\000\000\000\002\000\000\000\000\000\000\000\001\000\000\000\000\000\000\000\002\000\000\000\000\000\000\000\003\000\000\000\000\000\000\000\003\000\000\000\000\000\000\000\002\000\000\000\000\000\000\000\002\000\000\000\000\000\000\000\003\000\000\000\000\000\000\000\001\000\000\000\000\000\000\000\003\000\000\000\000\000\000\000\002\000\000\000\000\000\000\000\001\000\000\000\000\000\000\000\001\000\000\000\000\000\000\000\003\000\000\000\000\000\000\000\001\000\000\000\000\000\000\000\002\000\000\000\000\000\000\000\002\000\000\000\000\000\000\000\003\000\000\000\000\000\000\000\001\000\000\000\000\000\000\000\003\000\000\000\000\000\000\000\001\000\000\000\000\000\000\000\001\000\000\000\000\000\000\000\001\000\000\000\000\000\000\000\001\000\000\000\000\000\000\000\001\000\000\000\000\000\000\000\001\000\000\000\000\000\000\000\001\000\000\000\000\000\000\000\003\000\000\000\000\000\000\000\003\000\000\000\000\000\000\000\003\000\000\000\000\000\000\000\001\000\000\000\000\000\000\000\001\000\000\000\000\000\000\000\002\000\000\000\000\000\000\000\001\000\000\000\000\000\000\000\001\000\000\000\000\000\000\000\001\000\000\000\000\000\000\000\002\000\000\000\000\000\000\000\001\000\000\000\000\000\000\000\001\000\000\000\000\000\000\000\002\000\000\000\000\000\000\000\001\000\000\000\000\000\000\000\001\000\000\000\000\000\000\000"
      }
    }
  }
}
node {
  name: "normalize_element/component_6"
  op: "Const"
  device: "/device:CPU:0"
  attr {
    key: "_output_shapes"
    value {
      list {
        shape {
          dim {
            size: 313
          }
        }
      }
    }
  }
  attr {
    key: "dtype"
    value {
      type: DT_DOUBLE
    }
  }
  attr {
    key: "value"
    value {
      tensor {
        dtype: DT_DOUBLE
        tensor_shape {
          dim {
            size: 313
          }
        }
        tensor_content: "#P\n\332\320\337\332\277\375N\204@^\231\351?1\231\341\331\026\363\332\277\302\340\336\033AT\363\277\362^M<\035\230\353?=\005\334\326Ha\334\277\037\252D\034\022$\363\277\217\305\350\203,8\372?\022\342\225Q\223l\352\277\370W\033\027|\256\270\277p\3254L\305\020\344?\355\333sF\267\261\357\277\265\0371t\250<\240\277\260\335M\026\323\366\365\277Lb\247\036\370\002\362\277\341oyI\205C\356\277~p\226J\233\274\355\277Q^\033axE\251\277H\232R\010V!\370?f\250\304\000\323\264\373?\014Z\216T\352\034\340?q\305\021\234)<\363\2776S\233\337>=\330\277\213&\020\242e\250\312?a\312*89\215\355?<k\221R\325\r\341?\216v;\"QQ\360\277\037\252D\034\022$\363\277\361\036\377\272Lg\000@B\363\230O~]\353\277\277\207> <B\361\277|s\252\034\343\363\362\277\034lN\017\333F\371\277N-\030y\304V\377? +mQ\331\177\352\277\'\246\004\030\"8\217\277\020m\2774\232+\357?=[n\24299\360\277I\353Hb\335\204\342\277B\363\230O~]\353\277l\336A\377\353k\374?\232\201\034\025`\207\366\277s\344U\3551\245\312\277*X\335\234\313\333\362\277\336w\362W\243i\347\277|s\252\034\343\363\362\277&\\\205\023\034H\367\277\204\206\004\036\020P\362\277sN\033\250\001\314\307?.\301\240Hl\302\345?\2672F\233\207\234\363\277(\n\304\337\370)\330\277\203\213iZ\346>\346\277\323&\242I?0\356\277h\225\304\263\202.\333?\310\002h\322\360|\336\277\027\267\371E\211\353\357\277HfO\225Ho\366\277\335c5E\315`\347?:AXXt9\347\277J\026\026\001G\216\373?\351\202\323J\262\237\355\277\036\257\251X\350\022\347\277\260*s\330\214\240\333\277\314\243\377\210l\317\367?\241\306\361\351xX\323\277\242k1\027E\027\361?!\355\237e\037\360\340\277|s\252\034\343\363\362\277\311\227\204O!g\353\277O\273G\032\375\024\364\277u\303\361\304\372\014\323?&\377<\241\306\311\360\277\007\371_p8\013\242\277\022\313\000@\211\337b\277\264\267\026G\237d\357\277Py\251\226u\313\365\277\276\355\274f5i\340\277\250+\r\037\311\322\361\277\201\2253\323\222\034\336\277|\300\317\336\234\235\330\277j\361AL<\362\354\277\025\274\225\267\362_\331?m\323\263\266\256o\002@\210\023\250\214\"\024\366?a\020\232S\216\220\340?\353?\241\"\"!\360\277JSOH\370\350\345?6S\233\337>=\330\277#\352\302\310j>\321?\326\325\324\0205\032\364?\334\013R\017N\321\364?[\376\374\027\347\266\360?bO$\005\316\242\371?\037\020\303b\013K\342\277d#\307\372\314\201\000@\364\241\250\205*d\371?\033Q\244 \r\022\361\277\\V\340MfF\343?|s\252\034\343\363\362\277\220\022\016F\346\341\357\277\244?\330E\265\023\347?\305N\007\004\270)\372?\203\310\242\241\227\231\360\277\031\332Ed\362\223\341\277I\245\331F\210\201\357\277\021\316\330>\275c\352?\217\007\207\007\264\201\370?\353+\255\332\270\222\332\277\346\320\247-7U\254?\325P\333C\240\004\350?\2066\313\211\016o\367?\255f\357Y\270x\346\277\322H1\242\"V\360\277\311\324\275\226\322\301\365\277\323&\242I?0\356\277B\363\230O~]\353\277 \234\251\013\230\214\366?/F\232\025\001\330\361?56\250\370\304\213\377?s1\262\344~\324\325\277\225j\220y\353\004\274?\216v;\"QQ\360\277\314T\033\362\375b\310\277\026\r\214\021z\303\363?\034\240Q\202\350\370\372?\270$\253\212\r\005\367?R\314\'\220\036l\364?\362^M<\035\230\353?\242\025\237KT?\355\277}\\\3317\305\263\355?\370i\375\233\314E\363\277l\232\033\334B\345\331\277\322F\350\251v\331\337?S\307\302SH}\340?AYN\313\n\n\320?\216v;\"QQ\360\277;c\003j(\016\245\277\322\013\370Zq\373\345\277\307\272\247L\r\302\354\277{\245%\360\316h\320\277~\267\3115\201\336\002@\364\237 \346\010\'\325\277V\343)\010\2344\370?K\222\331\3717\373\376??z\262\363A\242\307\277`GzcP\364\341\277\276\364\251B-\225\350?A\350\021\021L\375\363?\233\375\337\rQ\364\371\277~\330\230\367D\003\002@#ic^\020]\344\277\234^\371\027t,\365\277\317\315\001N:\036\354\277\tN\023\033\237\264\363\277\r\247\263\026\244\306\365\277\364w\237\266Qy\002@\023>J\037\340\265\361\277\305\n\341\340\016\243\327\277\201/\354\301,{\324?\212\334\220G\315*\357\277w\236\017\363Y\357\307\277*\351_\267\301\221\300?[Y\275\352\032\370\322\277\205\310\276ZhH\254\277\205\007-S\327\253\351\277kR[V_*\350\277Tu\312\352\221\331\313\277u\016\217\347\222y\324\277\216\343\246DB\244\347?\237jtQ\277\224\341?\030UL\227]~\365\277K\244E\242\177L\360\277\340\221\010\242hi\360\277FL9K\203o\355\277\034C\t\020\223z\364?\212\334\220G\315*\357\277W\375v1b,\203\277\205\310\276ZhH\254\277\207\021 \355\000\327\321\2779\314\201;{\370\353?\375N\204@^\231\351?\022\220\013S\003\324\340?\032V\t]\343\000\345\277\347\026\275%T\301\261\277U\337\217\245a\000\311?\274}K\206\022\027\371?\331<\020\035\264\303\362\2777\350\267\\o\'\345\277#7\350\212$\350\366?\217\303`\344\n\373\325\277\206\331\202\027\271\360\360?=\007\233\253\375#\306?\234\2441\3765\252\302\277\032t\220\350e\347\314\277\017\352\016`\261\222\343\277\032\301\354\337\262\026\330\277\271q\320L\307\256\354\277\001Z\004\240N$\230?0aD\004\317\014\372?\000)\204\246\275\214\310?\232\201\034\025`\207\366\277%\204\326m\335\231\212?N\320\317\006o\330\370?\311E\372P\221\316\341?:\256\303ze\214\376?\330\262\261\023I\277\362?*X\335\234\313\333\362\277\267BiK#q\344?ip\031\027u\226\365\277HfO\225Ho\366\277@\264\016\236>K\362\277\242{T\307\340\353\321?\243\347\364\0176\204\364?\021My\324b\202\335\277\320.\033X]V\347\277g\371\272ZZ\030\346\277\215\350\013\201\030\223\373?\021\362\270\001/A\373?$\230\001\225G \362?\204\272\007\221\035\002\364?\206\203\360K\310\030\355\277\370,\304T\033\353\350\277\207!C\235\234\253\362\277\257\220(T\031M\340?\330\\\037HX\347\356\277\351\317/B\377\316\350?f\027y\033p\204\363\277\205\310\276ZhH\254\277\236o\331\215\225\203\365?J1J\023\014}\272\277\315\236\232L\226\340\343?Ugf\017\253\307\364?\367\270\216D\327}\241?\374W\272\024\002B\362?\227\021\2534=5\357?\235G(3V\354\357?b\276\330\037kr\361\277\2740&\304Xm\323?B\301T\261%n\303?\322\331|\207\205\206\370?\343\231\262C\346\027\350?\302\340\336\033AT\363\277`,b\n\\\264\276\277\231\007\341\273\220W\327?|A/I\367~\345?x\273x\266\334\346\331?f\230\241P7\340\352\277\367<\347\004\267\277\371?\312\337D\325\004\"\335\277\023\341w\211\223}\264?\360\265s\254\026\245\336?\231\356\2077Q\332\355?P\273\020\345i\217\316\277\344Iy\257\3446\335?!\355\237e\037\360\340\277\220X}a;\345\342\277_\264\345\205AG\371?\2672F\233\207\234\363\277\210`\315N\334\275\353\277n\253\373Qd<\352\277T\366)U\354\272\350\2773]\234\215~\240\365?\210\306\202\312hj\320?\225\225\347;L\310\353?\312\370\235YD\237\346\277\335\342\325\332r\177\332\277\325\345\367\300\320\356\324?\241\n\030\r\"\337\365?u\016\217\347\222y\324\277\313taR5\014\352\277\025\033\'\"\364Z\360\277\360\201p9\t\363\354?|\331(c\334\032\342\277\203\310\242\241\227\231\360\277#P\n\332\320\337\332\277\313taR5\014\352\277\333\"b\233\341\321\315?\027\375ha\336\356\342\277I\245\331F\210\201\357\277\242[\016g\251B\340\277\024\014\317K\364@\344?\312\224\247\262l\265\333?\300\321\206EA:\347?\220\203\324#\234\250\262\277\021\002\334\261\312\025\334?\215\003\355\244yM\311?\nm\216\241:\243\360\277\020\243\013\240SZ\361\277\214\271mJ\341\317\355\277g\223<\024a\361\366\277\213c\016{\022`\000@f\250\304\000\323\264\373?R)p\002t\352\372?0\331m\232\205E\316?\241g`\177w]\374?\t\202\026\216\254f\365?Q^\033axE\251\277\220\203\324#\234\250\262\277}U\354[\315\207\345\277\274\252a\035(\235\362\277\027\307\246\031\034z\267\277GK\033\203\203\200\267?\016p\234\321N\335\336\277\013\020\017\372Q\237\304\277\364\235a\021Td\273\277\204\2666\371OH\377?\303-\004\336\372\375\330\277\315\216\355x\003R\274?^\225j\377\245X\374?%\340\301\032+\333\363\277\367\227\247\327\352\000\334\277\362\222P\257*J\335?"
      }
    }
  }
}
node {
  name: "normalize_element/component_7"
  op: "Const"
  device: "/device:CPU:0"
  attr {
    key: "_output_shapes"
    value {
      list {
        shape {
          dim {
            size: 313
          }
        }
      }
    }
  }
  attr {
    key: "dtype"
    value {
      type: DT_DOUBLE
    }
  }
  attr {
    key: "value"
    value {
      tensor {
        dtype: DT_DOUBLE
        tensor_shape {
          dim {
            size: 313
          }
        }
        tensor_content: "\232\231\231\231\231\231:@\000\000\000\000\000\000,@\000\000\000\000\000\0003@\000\000\000\000\000\000C@\232\231\231\231\231\2311@33333s@@\000\000\000\000\000\200B@\000\000\000\000\000\000,@333333@@\232\231\231\231\231Y@@\000\000\000\000\000\2002@\000\000\000\000\000@A@3333334@\000\000\000\000\000\000B@\000\000\000\000\000\000=@fffff&A@\000\000\000\000\000\000;@333333B@\000\000\000\000\000\000*@\000\000\000\000\000\000*@fffff\3467@\000\000\000\000\000\000?@ffffff<@\000\000\000\000\000\000*@\000\000\000\000\000\000.@33333\2631@\000\000\000\000\000\000<@\315\314\314\314\314\014A@\000\000\000\000\000\000*@\000\000\000\000\000\000:@\000\000\000\000\000\300@@ffffff@@\000\000\000\000\000\000?@\000\000\000\000\000\000,@\000\000\000\000\000\000<@\000\000\000\000\000\0005@\000\000\000\000\000\2000@\000\000\000\000\000\000;@\000\000\000\000\000\200A@\232\231\231\231\231\031@@\000\000\000\000\000\000*@\000\000\000\000\000\200@@\000\000\000\000\000\0006@\000\000\000\000\000\000@@\000\000\000\000\000\000B@\315\314\314\314\314\214E@\315\314\314\314\314\214C@\232\231\231\231\231\231B@\000\000\000\000\000\0004@3333334@\000\000\000\000\000\000:@\000\000\000\000\000\0009@\000\000\000\000\000\0005@\000\000\000\000\000\200@@\000\000\000\000\000\0006@\000\000\000\000\000\0005@\000\000\000\000\000\300D@\315\314\314\314\314\014B@\000\000\000\000\000\0002@\000\000\000\000\000\0009@\000\000\000\000\000\000(@\000\000\000\000\000\000B@\000\000\000\000\000\0006@\000\000\000\000\000\000<@\000\000\000\000\000\000,@\000\000\000\000\000\000;@\000\000\000\000\000\0007@\000\000\000\000\000\0009@\315\314\314\314\314\014A@\000\000\000\000\000\000<@fffff\346?@\000\000\000\000\000\2005@\000\000\000\000\000\000;@\000\000\000\000\000\0002@\315\314\314\314\314\3143@\000\000\000\000\000\0008@\000\000\000\000\000\000;@\000\000\000\000\000\300@@\000\000\000\000\000\200?@\000\000\000\000\000\0007@\000\000\000\000\000\000@@\000\000\000\000\000\0009@\000\000\000\000\000\0001@\000\000\000\000\000\000(@\000\000\000\000\000\000/@\000\000\000\000\000\000.@\000\000\000\000\000\200=@\000\000\000\000\000\0002@ffffff;@\000\000\000\000\000\0004@\000\000\000\000\000\0001@\000\000\000\000\000\000*@\000\000\000\000\000\2001@\000\000\000\000\000\000,@\000\000\000\000\000\0007@\000\000\000\000\000\000*@\000\000\000\000\000\000.@fffff&F@\000\000\000\000\000\0002@\000\000\000\000\000\000>@fffff\346@@3333333@\000\000\000\000\000\000&@\315\314\314\314\314LG@\000\000\000\000\000\000=@\000\000\000\000\000\000<@\000\000\000\000\000\000.@\000\000\000\000\000\000*@\000\000\000\000\000\0007@\000\000\000\000\000\0005@\000\000\000\000\000\0003@\000\000\000\000\000\000,@\000\000\000\000\000\000A@\000\000\000\000\000\0002@\000\000\000\000\000\000@@\000\000\000\000\000\200>@\000\000\000\000\000\000:@\000\000\000\000\000\0000@\000\000\000\000\000\000*@\000\000\000\000\000\0000@\000\000\000\000\000\0008@\000\000\000\000\000\2006@\000\000\000\000\000\000C@\315\314\314\314\314L4@\000\000\000\000\000\000,@\000\000\000\000\000\000,@\000\000\000\000\000\000-@\000\000\000\000\000\000,@\232\231\231\231\231\231:@\232\231\231\231\231YA@\000\000\000\000\000\0000@\315\314\314\314\314\014C@\000\000\000\000\000\0005@ffffff6@\000\000\000\000\000\2004@\232\231\231\231\231\0312@\000\000\000\000\000\000B@\000\000\000\000\000\0007@\000\000\000\000\000\0006@\000\000\000\000\000\0009@\000\000\000\000\000\0002@\000\000\000\000\000\000&@\315\314\314\314\314\314=@\000\000\000\000\000\0000@\000\000\000\000\000\000,@\000\000\000\000\000\0006@\232\231\231\231\231\0315@\000\000\000\000\000\2002@\000\000\000\000\000\000/@\000\000\000\000\000\200A@\000\000\000\000\000\000(@\000\000\000\000\000\000:@\000\000\000\000\000\000=@\000\000\000\000\000\000A@\000\000\000\000\000\300@@\000\000\000\000\000\000:@\000\000\000\000\000\000(@\000\000\000\000\000\200>@\000\000\000\000\000\000<@\000\000\000\000\000\0003@\000\000\000\000\000\000<@\000\000\000\000\000\0006@\000\000\000\000\000\0004@\000\000\000\000\000\2008@\000\000\000\000\000\0009@\000\000\000\000\000\0003@333333@@\000\000\000\000\000\0004@\232\231\231\231\231\0319@\232\231\231\231\231\2312@\000\000\000\000\000\0002@\315\314\314\314\314LF@\000\000\000\000\000\0009@\315\314\314\314\314\014@@\232\231\231\231\231\331@@\000\000\000\000\000\2001@\000\000\000\000\000\2008@\000\000\000\000\000\0002@\000\000\000\000\000\0002@\000\000\000\000\000\2009@ffffff3@\000\000\000\000\000\0001@\000\000\000\000\000\0000@\000\000\000\000\000\200B@\000\000\000\000\000\0002@\000\000\000\000\000\000.@\000\000\000\000\000\000/@\000\000\000\000\000\000C@\000\000\000\000\000\0008@\000\000\000\000\000\000,@\315\314\314\314\314\314:@\000\000\000\000\000\000.@\000\000\000\000\000\0002@\000\000\000\000\000\0003@fffff\346;@\000\000\000\000\000\0005@\000\000\000\000\000\0009@fffff\346>@\000\000\000\000\000\0008@\000\000\000\000\000\000$@\000\000\000\000\000\2004@\000\000\000\000\000\200@@\315\314\314\314\314L8@\000\000\000\000\000\000,@\232\231\231\231\231\2311@\000\000\000\000\000\000$@\000\000\000\000\000\000*@\000\000\000\000\000\200?@3333333@\315\314\314\314\314\314=@\315\314\314\314\314\014B@\315\314\314\314\314\314?@\232\231\231\231\231\031<@\000\000\000\000\000\000.@\000\000\000\000\000\2005@\000\000\000\000\000\0008@fffff\3467@\000\000\000\000\000\000,@\000\000\000\000\000\000.@\000\000\000\000\000\2000@\000\000\000\000\000\000*@\000\000\000\000\000\000=@\000\000\000\000\000\0003@\000\000\000\000\000\000?@3333333@\000\000\000\000\000\000=@\000\000\000\000\000\0004@\000\000\000\000\000\000:@\000\000\000\000\000\0006@\000\000\000\000\000\000.@\000\000\000\000\000\0007@\000\000\000\000\000\2001@\000\000\000\000\000\000,@\000\000\000\000\000\0002@\000\000\000\000\000\000/@\000\000\000\000\000\000*@\000\000\000\000\000\0001@fffff&@@\000\000\000\000\000\000>@\000\000\000\000\000\0002@\000\000\000\000\000\000.@\000\000\000\000\000\0000@\000\000\000\000\000\000@@\315\314\314\314\314L6@\000\000\000\000\000\0003@\000\000\000\000\000\000.@\000\000\000\000\000\000.@\000\000\000\000\000\0008@fffff\3460@\000\000\000\000\000\000<@3333334@\000\000\000\000\000\000.@\000\000\000\000\000\0002@\000\000\000\000\000\0002@\232\231\231\231\231\2314@\315\314\314\314\314L?@333333;@\000\000\000\000\000\0000@\000\000\000\000\000\000?@\000\000\000\000\000\000:@\000\000\000\000\000\000@@33333\263E@\000\000\000\000\000\0000@ffffff3@\000\000\000\000\000\000.@\000\000\000\000\000\000:@\000\000\000\000\000\000;@\000\000\000\000\000\0003@\000\000\000\000\000\000,@\000\000\000\000\000\000?@\000\000\000\000\000\2009@\000\000\000\000\000\000<@\000\000\000\000\000\000.@\000\000\000\000\000\0006@ffffffD@\232\231\231\231\231\231?@\000\000\000\000\000\000:@333333;@\000\000\000\000\000\0008@\000\000\000\000\000\000>@\000\000\000\000\000\200;@ffffff9@\232\231\231\231\231\2314@\000\000\000\000\000\000,@3333338@fffff\3463@33333\263>@\000\000\000\000\000\0008@33333\263C@\232\231\231\231\231\031A@\000\000\000\000\000\000?@\000\000\000\000\000\000\"@\000\000\000\000\000\000,@\000\000\000\000\000\000*@\000\000\000\000\000\2001@\000\000\000\000\000\000(@\000\000\000\000\000\000,@\000\000\000\000\000\000;@\000\000\000\000\000\0003@33333\2637@\000\000\000\000\000\000@@\000\000\000\000\000\0004@\315\314\314\314\314\3144@\000\000\000\000\000\0004@\315\314\314\314\314\3147@\000\000\000\000\000\0003@\000\000\000\000\000\000*@\000\000\000\000\000\0008@\000\000\000\000\000\000,@\000\000\000\000\000\0000@\000\000\000\000\000\000=@\315\314\314\314\314\3149@\232\231\231\231\231\0313@"
      }
    }
  }
}
node {
  name: "TensorSliceDataset"
  op: "TensorSliceDataset"
  input: "normalize_element/component_0"
  input: "normalize_element/component_1"
  input: "normalize_element/component_2"
  input: "normalize_element/component_3"
  input: "normalize_element/component_4"
  input: "normalize_element/component_5"
  input: "normalize_element/component_6"
  input: "normalize_element/component_7"
  device: "/device:CPU:0"
  attr {
    key: "Toutput_types"
    value {
      list {
        type: DT_DOUBLE
        type: DT_DOUBLE
        type: DT_DOUBLE
        type: DT_DOUBLE
        type: DT_INT64
        type: DT_INT64
        type: DT_DOUBLE
        type: DT_DOUBLE
      }
    }
  }
  attr {
    key: "_output_shapes"
    value {
      list {
        shape {
        }
      }
    }
  }
  attr {
    key: "output_shapes"
    value {
      list {
        shape {
        }
        shape {
        }
        shape {
        }
        shape {
        }
        shape {
        }
        shape {
        }
        shape {
        }
        shape {
        }
      }
    }
  }
}
node {
  name: "buffer_size"
  op: "Const"
  device: "/device:CPU:0"
  attr {
    key: "_output_shapes"
    value {
      list {
        shape {
        }
      }
    }
  }
  attr {
    key: "dtype"
    value {
      type: DT_INT64
    }
  }
  attr {
    key: "value"
    value {
      tensor {
        dtype: DT_INT64
        tensor_shape {
        }
        int64_val: 1000
      }
    }
  }
}
node {
  name: "seed"
  op: "Const"
  device: "/device:CPU:0"
  attr {
    key: "_output_shapes"
    value {
      list {
        shape {
        }
      }
    }
  }
  attr {
    key: "dtype"
    value {
      type: DT_INT64
    }
  }
  attr {
    key: "value"
    value {
      tensor {
        dtype: DT_INT64
        tensor_shape {
        }
        int64_val: 0
      }
    }
  }
}
node {
  name: "seed2"
  op: "Const"
  device: "/device:CPU:0"
  attr {
    key: "_output_shapes"
    value {
      list {
        shape {
        }
      }
    }
  }
  attr {
    key: "dtype"
    value {
      type: DT_INT64
    }
  }
  attr {
    key: "value"
    value {
      tensor {
        dtype: DT_INT64
        tensor_shape {
        }
        int64_val: 0
      }
    }
  }
}
node {
  name: "ShuffleDataset"
  op: "ShuffleDataset"
  input: "TensorSliceDataset"
  input: "buffer_size"
  input: "seed"
  input: "seed2"
  device: "/device:CPU:0"
  attr {
    key: "_output_shapes"
    value {
      list {
        shape {
        }
      }
    }
  }
  attr {
    key: "output_shapes"
    value {
      list {
        shape {
        }
        shape {
        }
        shape {
        }
        shape {
        }
        shape {
        }
        shape {
        }
        shape {
        }
        shape {
        }
      }
    }
  }
  attr {
    key: "output_types"
    value {
      list {
        type: DT_DOUBLE
        type: DT_DOUBLE
        type: DT_DOUBLE
        type: DT_DOUBLE
        type: DT_INT64
        type: DT_INT64
        type: DT_DOUBLE
        type: DT_DOUBLE
      }
    }
  }
  attr {
    key: "reshuffle_each_iteration"
    value {
      b: true
    }
  }
}
node {
  name: "count"
  op: "Const"
  device: "/device:CPU:0"
  attr {
    key: "_output_shapes"
    value {
      list {
        shape {
        }
      }
    }
  }
  attr {
    key: "dtype"
    value {
      type: DT_INT64
    }
  }
  attr {
    key: "value"
    value {
      tensor {
        dtype: DT_INT64
        tensor_shape {
        }
        int64_val: -1
      }
    }
  }
}
node {
  name: "RepeatDataset"
  op: "RepeatDataset"
  input: "ShuffleDataset"
  input: "count"
  device: "/device:CPU:0"
  attr {
    key: "_output_shapes"
    value {
      list {
        shape {
        }
      }
    }
  }
  attr {
    key: "output_shapes"
    value {
      list {
        shape {
        }
        shape {
        }
        shape {
        }
        shape {
        }
        shape {
        }
        shape {
        }
        shape {
        }
        shape {
        }
      }
    }
  }
  attr {
    key: "output_types"
    value {
      list {
        type: DT_DOUBLE
        type: DT_DOUBLE
        type: DT_DOUBLE
        type: DT_DOUBLE
        type: DT_INT64
        type: DT_INT64
        type: DT_DOUBLE
        type: DT_DOUBLE
      }
    }
  }
}
node {
  name: "batch_size"
  op: "Const"
  device: "/device:CPU:0"
  attr {
    key: "_output_shapes"
    value {
      list {
        shape {
        }
      }
    }
  }
  attr {
    key: "dtype"
    value {
      type: DT_INT64
    }
  }
  attr {
    key: "value"
    value {
      tensor {
        dtype: DT_INT64
        tensor_shape {
        }
        int64_val: 8
      }
    }
  }
}
node {
  name: "drop_remainder"
  op: "Const"
  device: "/device:CPU:0"
  attr {
    key: "_output_shapes"
    value {
      list {
        shape {
        }
      }
    }
  }
  attr {
    key: "dtype"
    value {
      type: DT_BOOL
    }
  }
  attr {
    key: "value"
    value {
      tensor {
        dtype: DT_BOOL
        tensor_shape {
        }
        bool_val: false
      }
    }
  }
}
node {
  name: "BatchDatasetV2"
  op: "BatchDatasetV2"
  input: "RepeatDataset"
  input: "batch_size"
  input: "drop_remainder"
  device: "/device:CPU:0"
  attr {
    key: "_output_shapes"
    value {
      list {
        shape {
        }
      }
    }
  }
  attr {
    key: "output_shapes"
    value {
      list {
        shape {
          dim {
            size: -1
          }
        }
        shape {
          dim {
            size: -1
          }
        }
        shape {
          dim {
            size: -1
          }
        }
        shape {
          dim {
            size: -1
          }
        }
        shape {
          dim {
            size: -1
          }
        }
        shape {
          dim {
            size: -1
          }
        }
        shape {
          dim {
            size: -1
          }
        }
        shape {
          dim {
            size: -1
          }
        }
      }
    }
  }
  attr {
    key: "output_types"
    value {
      list {
        type: DT_DOUBLE
        type: DT_DOUBLE
        type: DT_DOUBLE
        type: DT_DOUBLE
        type: DT_INT64
        type: DT_INT64
        type: DT_DOUBLE
        type: DT_DOUBLE
      }
    }
  }
  attr {
    key: "parallel_copy"
    value {
      b: false
    }
  }
}
node {
  name: "optimizations"
  op: "Const"
  attr {
    key: "_output_shapes"
    value {
      list {
        shape {
          dim {
            size: 3
          }
        }
      }
    }
  }
  attr {
    key: "dtype"
    value {
      type: DT_STRING
    }
  }
  attr {
    key: "value"
    value {
      tensor {
        dtype: DT_STRING
        tensor_shape {
          dim {
            size: 3
          }
        }
        string_val: "map_and_batch_fusion"
        string_val: "noop_elimination"
        string_val: "shuffle_and_repeat_fusion"
      }
    }
  }
}
node {
  name: "OptimizeDataset"
  op: "OptimizeDataset"
  input: "BatchDatasetV2"
  input: "optimizations"
  attr {
    key: "_output_shapes"
    value {
      list {
        shape {
        }
      }
    }
  }
  attr {
    key: "optimization_configs"
    value {
      list {
        s: "map_vectorization:use_choose_fastest:false"
      }
    }
  }
  attr {
    key: "output_shapes"
    value {
      list {
        shape {
          dim {
            size: -1
          }
        }
        shape {
          dim {
            size: -1
          }
        }
        shape {
          dim {
            size: -1
          }
        }
        shape {
          dim {
            size: -1
          }
        }
        shape {
          dim {
            size: -1
          }
        }
        shape {
          dim {
            size: -1
          }
        }
        shape {
          dim {
            size: -1
          }
        }
        shape {
          dim {
            size: -1
          }
        }
      }
    }
  }
  attr {
    key: "output_types"
    value {
      list {
        type: DT_DOUBLE
        type: DT_DOUBLE
        type: DT_DOUBLE
        type: DT_DOUBLE
        type: DT_INT64
        type: DT_INT64
        type: DT_DOUBLE
        type: DT_DOUBLE
      }
    }
  }
}
node {
  name: "ModelDataset"
  op: "ModelDataset"
  input: "OptimizeDataset"
  attr {
    key: "_output_shapes"
    value {
      list {
        shape {
        }
      }
    }
  }
  attr {
    key: "algorithm"
    value {
      i: 0
    }
  }
  attr {
    key: "cpu_budget"
    value {
      i: 0
    }
  }
  attr {
    key: "output_shapes"
    value {
      list {
        shape {
          dim {
            size: -1
          }
        }
        shape {
          dim {
            size: -1
          }
        }
        shape {
          dim {
            size: -1
          }
        }
        shape {
          dim {
            size: -1
          }
        }
        shape {
          dim {
            size: -1
          }
        }
        shape {
          dim {
            size: -1
          }
        }
        shape {
          dim {
            size: -1
          }
        }
        shape {
          dim {
            size: -1
          }
        }
      }
    }
  }
  attr {
    key: "output_types"
    value {
      list {
        type: DT_DOUBLE
        type: DT_DOUBLE
        type: DT_DOUBLE
        type: DT_DOUBLE
        type: DT_INT64
        type: DT_INT64
        type: DT_DOUBLE
        type: DT_DOUBLE
      }
    }
  }
}
node {
  name: "IteratorV2"
  op: "IteratorV2"
  attr {
    key: "_output_shapes"
    value {
      list {
        shape {
        }
      }
    }
  }
  attr {
    key: "container"
    value {
      s: ""
    }
  }
  attr {
    key: "output_shapes"
    value {
      list {
        shape {
          dim {
            size: -1
          }
        }
        shape {
          dim {
            size: -1
          }
        }
        shape {
          dim {
            size: -1
          }
        }
        shape {
          dim {
            size: -1
          }
        }
        shape {
          dim {
            size: -1
          }
        }
        shape {
          dim {
            size: -1
          }
        }
        shape {
          dim {
            size: -1
          }
        }
        shape {
          dim {
            size: -1
          }
        }
      }
    }
  }
  attr {
    key: "output_types"
    value {
      list {
        type: DT_DOUBLE
        type: DT_DOUBLE
        type: DT_DOUBLE
        type: DT_DOUBLE
        type: DT_INT64
        type: DT_INT64
        type: DT_DOUBLE
        type: DT_DOUBLE
      }
    }
  }
  attr {
    key: "shared_name"
    value {
      s: ""
    }
  }
}
node {
  name: "MakeIterator"
  op: "MakeIterator"
  input: "ModelDataset"
  input: "IteratorV2"
  attr {
    key: "_class"
    value {
      list {
        s: "loc:@IteratorV2"
      }
    }
  }
}
node {
  name: "IteratorToStringHandle"
  op: "IteratorToStringHandle"
  input: "IteratorV2"
  attr {
    key: "_output_shapes"
    value {
      list {
        shape {
        }
      }
    }
  }
}
node {
  name: "IteratorGetNext"
  op: "IteratorGetNext"
  input: "IteratorV2"
  attr {
    key: "_output_shapes"
    value {
      list {
        shape {
          dim {
            size: -1
          }
        }
        shape {
          dim {
            size: -1
          }
        }
        shape {
          dim {
            size: -1
          }
        }
        shape {
          dim {
            size: -1
          }
        }
        shape {
          dim {
            size: -1
          }
        }
        shape {
          dim {
            size: -1
          }
        }
        shape {
          dim {
            size: -1
          }
        }
        shape {
          dim {
            size: -1
          }
        }
      }
    }
  }
  attr {
    key: "output_shapes"
    value {
      list {
        shape {
          dim {
            size: -1
          }
        }
        shape {
          dim {
            size: -1
          }
        }
        shape {
          dim {
            size: -1
          }
        }
        shape {
          dim {
            size: -1
          }
        }
        shape {
          dim {
            size: -1
          }
        }
        shape {
          dim {
            size: -1
          }
        }
        shape {
          dim {
            size: -1
          }
        }
        shape {
          dim {
            size: -1
          }
        }
      }
    }
  }
  attr {
    key: "output_types"
    value {
      list {
        type: DT_DOUBLE
        type: DT_DOUBLE
        type: DT_DOUBLE
        type: DT_DOUBLE
        type: DT_INT64
        type: DT_INT64
        type: DT_DOUBLE
        type: DT_DOUBLE
      }
    }
  }
}
node {
  name: "dnn/Cast"
  op: "Cast"
  input: "IteratorGetNext"
  attr {
    key: "DstT"
    value {
      type: DT_FLOAT
    }
  }
  attr {
    key: "SrcT"
    value {
      type: DT_DOUBLE
    }
  }
  attr {
    key: "Truncate"
    value {
      b: false
    }
  }
  attr {
    key: "_output_shapes"
    value {
      list {
        shape {
          dim {
            size: -1
          }
        }
      }
    }
  }
}
node {
  name: "dnn/Cast_1"
  op: "Cast"
  input: "IteratorGetNext:1"
  attr {
    key: "DstT"
    value {
      type: DT_FLOAT
    }
  }
  attr {
    key: "SrcT"
    value {
      type: DT_DOUBLE
    }
  }
  attr {
    key: "Truncate"
    value {
      b: false
    }
  }
  attr {
    key: "_output_shapes"
    value {
      list {
        shape {
          dim {
            size: -1
          }
        }
      }
    }
  }
}
node {
  name: "dnn/Cast_2"
  op: "Cast"
  input: "IteratorGetNext:2"
  attr {
    key: "DstT"
    value {
      type: DT_FLOAT
    }
  }
  attr {
    key: "SrcT"
    value {
      type: DT_DOUBLE
    }
  }
  attr {
    key: "Truncate"
    value {
      b: false
    }
  }
  attr {
    key: "_output_shapes"
    value {
      list {
        shape {
          dim {
            size: -1
          }
        }
      }
    }
  }
}
node {
  name: "dnn/Cast_3"
  op: "Cast"
  input: "IteratorGetNext:3"
  attr {
    key: "DstT"
    value {
      type: DT_FLOAT
    }
  }
  attr {
    key: "SrcT"
    value {
      type: DT_DOUBLE
    }
  }
  attr {
    key: "Truncate"
    value {
      b: false
    }
  }
  attr {
    key: "_output_shapes"
    value {
      list {
        shape {
          dim {
            size: -1
          }
        }
      }
    }
  }
}
node {
  name: "dnn/Cast_4"
  op: "Cast"
  input: "IteratorGetNext:6"
  attr {
    key: "DstT"
    value {
      type: DT_FLOAT
    }
  }
  attr {
    key: "SrcT"
    value {
      type: DT_DOUBLE
    }
  }
  attr {
    key: "Truncate"
    value {
      b: false
    }
  }
  attr {
    key: "_output_shapes"
    value {
      list {
        shape {
          dim {
            size: -1
          }
        }
      }
    }
  }
}
node {
  name: "dnn/input_from_feature_columns/input_layer/Acceleration_1/ExpandDims/dim"
  op: "Const"
  attr {
    key: "_output_shapes"
    value {
      list {
        shape {
        }
      }
    }
  }
  attr {
    key: "dtype"
    value {
      type: DT_INT32
    }
  }
  attr {
    key: "value"
    value {
      tensor {
        dtype: DT_INT32
        tensor_shape {
        }
        int_val: -1
      }
    }
  }
}
node {
  name: "dnn/input_from_feature_columns/input_layer/Acceleration_1/ExpandDims"
  op: "ExpandDims"
  input: "dnn/Cast"
  input: "dnn/input_from_feature_columns/input_layer/Acceleration_1/ExpandDims/dim"
  attr {
    key: "T"
    value {
      type: DT_FLOAT
    }
  }
  attr {
    key: "Tdim"
    value {
      type: DT_INT32
    }
  }
  attr {
    key: "_output_shapes"
    value {
      list {
        shape {
          dim {
            size: -1
          }
          dim {
            size: 1
          }
        }
      }
    }
  }
}
node {
  name: "dnn/input_from_feature_columns/input_layer/Acceleration_1/Shape"
  op: "Shape"
  input: "dnn/input_from_feature_columns/input_layer/Acceleration_1/ExpandDims"
  attr {
    key: "T"
    value {
      type: DT_FLOAT
    }
  }
  attr {
    key: "_output_shapes"
    value {
      list {
        shape {
          dim {
            size: 2
          }
        }
      }
    }
  }
  attr {
    key: "out_type"
    value {
      type: DT_INT32
    }
  }
}
node {
  name: "dnn/input_from_feature_columns/input_layer/Acceleration_1/strided_slice/stack"
  op: "Const"
  attr {
    key: "_output_shapes"
    value {
      list {
        shape {
          dim {
            size: 1
          }
        }
      }
    }
  }
  attr {
    key: "dtype"
    value {
      type: DT_INT32
    }
  }
  attr {
    key: "value"
    value {
      tensor {
        dtype: DT_INT32
        tensor_shape {
          dim {
            size: 1
          }
        }
        int_val: 0
      }
    }
  }
}
node {
  name: "dnn/input_from_feature_columns/input_layer/Acceleration_1/strided_slice/stack_1"
  op: "Const"
  attr {
    key: "_output_shapes"
    value {
      list {
        shape {
          dim {
            size: 1
          }
        }
      }
    }
  }
  attr {
    key: "dtype"
    value {
      type: DT_INT32
    }
  }
  attr {
    key: "value"
    value {
      tensor {
        dtype: DT_INT32
        tensor_shape {
          dim {
            size: 1
          }
        }
        int_val: 1
      }
    }
  }
}
node {
  name: "dnn/input_from_feature_columns/input_layer/Acceleration_1/strided_slice/stack_2"
  op: "Const"
  attr {
    key: "_output_shapes"
    value {
      list {
        shape {
          dim {
            size: 1
          }
        }
      }
    }
  }
  attr {
    key: "dtype"
    value {
      type: DT_INT32
    }
  }
  attr {
    key: "value"
    value {
      tensor {
        dtype: DT_INT32
        tensor_shape {
          dim {
            size: 1
          }
        }
        int_val: 1
      }
    }
  }
}
node {
  name: "dnn/input_from_feature_columns/input_layer/Acceleration_1/strided_slice"
  op: "StridedSlice"
  input: "dnn/input_from_feature_columns/input_layer/Acceleration_1/Shape"
  input: "dnn/input_from_feature_columns/input_layer/Acceleration_1/strided_slice/stack"
  input: "dnn/input_from_feature_columns/input_layer/Acceleration_1/strided_slice/stack_1"
  input: "dnn/input_from_feature_columns/input_layer/Acceleration_1/strided_slice/stack_2"
  attr {
    key: "Index"
    value {
      type: DT_INT32
    }
  }
  attr {
    key: "T"
    value {
      type: DT_INT32
    }
  }
  attr {
    key: "_output_shapes"
    value {
      list {
        shape {
        }
      }
    }
  }
  attr {
    key: "begin_mask"
    value {
      i: 0
    }
  }
  attr {
    key: "ellipsis_mask"
    value {
      i: 0
    }
  }
  attr {
    key: "end_mask"
    value {
      i: 0
    }
  }
  attr {
    key: "new_axis_mask"
    value {
      i: 0
    }
  }
  attr {
    key: "shrink_axis_mask"
    value {
      i: 1
    }
  }
}
node {
  name: "dnn/input_from_feature_columns/input_layer/Acceleration_1/Reshape/shape/1"
  op: "Const"
  attr {
    key: "_output_shapes"
    value {
      list {
        shape {
        }
      }
    }
  }
  attr {
    key: "dtype"
    value {
      type: DT_INT32
    }
  }
  attr {
    key: "value"
    value {
      tensor {
        dtype: DT_INT32
        tensor_shape {
        }
        int_val: 1
      }
    }
  }
}
node {
  name: "dnn/input_from_feature_columns/input_layer/Acceleration_1/Reshape/shape"
  op: "Pack"
  input: "dnn/input_from_feature_columns/input_layer/Acceleration_1/strided_slice"
  input: "dnn/input_from_feature_columns/input_layer/Acceleration_1/Reshape/shape/1"
  attr {
    key: "N"
    value {
      i: 2
    }
  }
  attr {
    key: "T"
    value {
      type: DT_INT32
    }
  }
  attr {
    key: "_output_shapes"
    value {
      list {
        shape {
          dim {
            size: 2
          }
        }
      }
    }
  }
  attr {
    key: "axis"
    value {
      i: 0
    }
  }
}
node {
  name: "dnn/input_from_feature_columns/input_layer/Acceleration_1/Reshape"
  op: "Reshape"
  input: "dnn/input_from_feature_columns/input_layer/Acceleration_1/ExpandDims"
  input: "dnn/input_from_feature_columns/input_layer/Acceleration_1/Reshape/shape"
  attr {
    key: "T"
    value {
      type: DT_FLOAT
    }
  }
  attr {
    key: "Tshape"
    value {
      type: DT_INT32
    }
  }
  attr {
    key: "_output_shapes"
    value {
      list {
        shape {
          dim {
            size: -1
          }
          dim {
            size: 1
          }
        }
      }
    }
  }
}
node {
  name: "dnn/input_from_feature_columns/input_layer/Cylinders_1/ExpandDims/dim"
  op: "Const"
  attr {
    key: "_output_shapes"
    value {
      list {
        shape {
        }
      }
    }
  }
  attr {
    key: "dtype"
    value {
      type: DT_INT32
    }
  }
  attr {
    key: "value"
    value {
      tensor {
        dtype: DT_INT32
        tensor_shape {
        }
        int_val: -1
      }
    }
  }
}
node {
  name: "dnn/input_from_feature_columns/input_layer/Cylinders_1/ExpandDims"
  op: "ExpandDims"
  input: "dnn/Cast_1"
  input: "dnn/input_from_feature_columns/input_layer/Cylinders_1/ExpandDims/dim"
  attr {
    key: "T"
    value {
      type: DT_FLOAT
    }
  }
  attr {
    key: "Tdim"
    value {
      type: DT_INT32
    }
  }
  attr {
    key: "_output_shapes"
    value {
      list {
        shape {
          dim {
            size: -1
          }
          dim {
            size: 1
          }
        }
      }
    }
  }
}
node {
  name: "dnn/input_from_feature_columns/input_layer/Cylinders_1/Shape"
  op: "Shape"
  input: "dnn/input_from_feature_columns/input_layer/Cylinders_1/ExpandDims"
  attr {
    key: "T"
    value {
      type: DT_FLOAT
    }
  }
  attr {
    key: "_output_shapes"
    value {
      list {
        shape {
          dim {
            size: 2
          }
        }
      }
    }
  }
  attr {
    key: "out_type"
    value {
      type: DT_INT32
    }
  }
}
node {
  name: "dnn/input_from_feature_columns/input_layer/Cylinders_1/strided_slice/stack"
  op: "Const"
  attr {
    key: "_output_shapes"
    value {
      list {
        shape {
          dim {
            size: 1
          }
        }
      }
    }
  }
  attr {
    key: "dtype"
    value {
      type: DT_INT32
    }
  }
  attr {
    key: "value"
    value {
      tensor {
        dtype: DT_INT32
        tensor_shape {
          dim {
            size: 1
          }
        }
        int_val: 0
      }
    }
  }
}
node {
  name: "dnn/input_from_feature_columns/input_layer/Cylinders_1/strided_slice/stack_1"
  op: "Const"
  attr {
    key: "_output_shapes"
    value {
      list {
        shape {
          dim {
            size: 1
          }
        }
      }
    }
  }
  attr {
    key: "dtype"
    value {
      type: DT_INT32
    }
  }
  attr {
    key: "value"
    value {
      tensor {
        dtype: DT_INT32
        tensor_shape {
          dim {
            size: 1
          }
        }
        int_val: 1
      }
    }
  }
}
node {
  name: "dnn/input_from_feature_columns/input_layer/Cylinders_1/strided_slice/stack_2"
  op: "Const"
  attr {
    key: "_output_shapes"
    value {
      list {
        shape {
          dim {
            size: 1
          }
        }
      }
    }
  }
  attr {
    key: "dtype"
    value {
      type: DT_INT32
    }
  }
  attr {
    key: "value"
    value {
      tensor {
        dtype: DT_INT32
        tensor_shape {
          dim {
            size: 1
          }
        }
        int_val: 1
      }
    }
  }
}
node {
  name: "dnn/input_from_feature_columns/input_layer/Cylinders_1/strided_slice"
  op: "StridedSlice"
  input: "dnn/input_from_feature_columns/input_layer/Cylinders_1/Shape"
  input: "dnn/input_from_feature_columns/input_layer/Cylinders_1/strided_slice/stack"
  input: "dnn/input_from_feature_columns/input_layer/Cylinders_1/strided_slice/stack_1"
  input: "dnn/input_from_feature_columns/input_layer/Cylinders_1/strided_slice/stack_2"
  attr {
    key: "Index"
    value {
      type: DT_INT32
    }
  }
  attr {
    key: "T"
    value {
      type: DT_INT32
    }
  }
  attr {
    key: "_output_shapes"
    value {
      list {
        shape {
        }
      }
    }
  }
  attr {
    key: "begin_mask"
    value {
      i: 0
    }
  }
  attr {
    key: "ellipsis_mask"
    value {
      i: 0
    }
  }
  attr {
    key: "end_mask"
    value {
      i: 0
    }
  }
  attr {
    key: "new_axis_mask"
    value {
      i: 0
    }
  }
  attr {
    key: "shrink_axis_mask"
    value {
      i: 1
    }
  }
}
node {
  name: "dnn/input_from_feature_columns/input_layer/Cylinders_1/Reshape/shape/1"
  op: "Const"
  attr {
    key: "_output_shapes"
    value {
      list {
        shape {
        }
      }
    }
  }
  attr {
    key: "dtype"
    value {
      type: DT_INT32
    }
  }
  attr {
    key: "value"
    value {
      tensor {
        dtype: DT_INT32
        tensor_shape {
        }
        int_val: 1
      }
    }
  }
}
node {
  name: "dnn/input_from_feature_columns/input_layer/Cylinders_1/Reshape/shape"
  op: "Pack"
  input: "dnn/input_from_feature_columns/input_layer/Cylinders_1/strided_slice"
  input: "dnn/input_from_feature_columns/input_layer/Cylinders_1/Reshape/shape/1"
  attr {
    key: "N"
    value {
      i: 2
    }
  }
  attr {
    key: "T"
    value {
      type: DT_INT32
    }
  }
  attr {
    key: "_output_shapes"
    value {
      list {
        shape {
          dim {
            size: 2
          }
        }
      }
    }
  }
  attr {
    key: "axis"
    value {
      i: 0
    }
  }
}
node {
  name: "dnn/input_from_feature_columns/input_layer/Cylinders_1/Reshape"
  op: "Reshape"
  input: "dnn/input_from_feature_columns/input_layer/Cylinders_1/ExpandDims"
  input: "dnn/input_from_feature_columns/input_layer/Cylinders_1/Reshape/shape"
  attr {
    key: "T"
    value {
      type: DT_FLOAT
    }
  }
  attr {
    key: "Tshape"
    value {
      type: DT_INT32
    }
  }
  attr {
    key: "_output_shapes"
    value {
      list {
        shape {
          dim {
            size: -1
          }
          dim {
            size: 1
          }
        }
      }
    }
  }
}
node {
  name: "dnn/input_from_feature_columns/input_layer/Displacement_1/ExpandDims/dim"
  op: "Const"
  attr {
    key: "_output_shapes"
    value {
      list {
        shape {
        }
      }
    }
  }
  attr {
    key: "dtype"
    value {
      type: DT_INT32
    }
  }
  attr {
    key: "value"
    value {
      tensor {
        dtype: DT_INT32
        tensor_shape {
        }
        int_val: -1
      }
    }
  }
}
node {
  name: "dnn/input_from_feature_columns/input_layer/Displacement_1/ExpandDims"
  op: "ExpandDims"
  input: "dnn/Cast_2"
  input: "dnn/input_from_feature_columns/input_layer/Displacement_1/ExpandDims/dim"
  attr {
    key: "T"
    value {
      type: DT_FLOAT
    }
  }
  attr {
    key: "Tdim"
    value {
      type: DT_INT32
    }
  }
  attr {
    key: "_output_shapes"
    value {
      list {
        shape {
          dim {
            size: -1
          }
          dim {
            size: 1
          }
        }
      }
    }
  }
}
node {
  name: "dnn/input_from_feature_columns/input_layer/Displacement_1/Shape"
  op: "Shape"
  input: "dnn/input_from_feature_columns/input_layer/Displacement_1/ExpandDims"
  attr {
    key: "T"
    value {
      type: DT_FLOAT
    }
  }
  attr {
    key: "_output_shapes"
    value {
      list {
        shape {
          dim {
            size: 2
          }
        }
      }
    }
  }
  attr {
    key: "out_type"
    value {
      type: DT_INT32
    }
  }
}
node {
  name: "dnn/input_from_feature_columns/input_layer/Displacement_1/strided_slice/stack"
  op: "Const"
  attr {
    key: "_output_shapes"
    value {
      list {
        shape {
          dim {
            size: 1
          }
        }
      }
    }
  }
  attr {
    key: "dtype"
    value {
      type: DT_INT32
    }
  }
  attr {
